<pad>	0
<unk>	0
<s>	0
</s>	0
<sep>	0
▁t	-0
▁a	-1
gn	-2
an	-3
▁m	-4
ah	-5
gne	-6
▁n	-7
▁ty	-8
▁f	-9
ar	-10
ke	-11
▁i	-12
▁r	-13
▁h	-14
at	-15
ao	-16
am	-17
agne	-18
al	-19
dr	-20
sy	-21
▁am	-22
aho	-23
▁an	-24
it	-25
▁fa	-26
ake	-27
ko	-28
se	-29
ae	-30
▁v	-31
▁s	-32
aha	-33
▁naho	-34
agn	-35
om	-36
▁l	-37
are	-38
▁tsy	-39
▁mi	-40
ka	-41
oe	-42
il	-43
ay	-44
in	-45
on	-46
oh	-47
be	-48
si	-49
zao	-50
andr	-51
bo	-52
▁te	-53
re	-54
av	-55
▁e	-56
▁ni	-57
az	-58
▁z	-59
▁man	-60
ie	-61
▁re	-62
ot	-63
or	-64
▁andr	-65
▁agn	-66
ol	-67
af	-68
et	-69
oy	-70
ba	-71
ara	-72
▁ami	-73
▁ro	-74
sa	-75
ogne	-76
▁av	-77
ahe	-78
▁hoe	-79
ja	-80
he	-81
ang	-82
areo	-83
amp	-84
▁ko	-85
▁o	-86
ika	-87
ane	-88
ike	-89
ia	-90
aty	-91
▁at	-92
de	-93
el	-94
▁avao	-95
▁amizao	-96
▁maha	-97
ir	-98
▁az	-99
igne	-100
aro	-101
zay	-102
en	-103
▁amy	-104
ili	-105
ano	-106
▁ho	-107
▁tal	-108
atse	-109
▁iareo	-110
oko	-111
oa	-112
▁ant	-113
▁raha	-114
oha	-115
▁ka	-116
▁ama	-117
daty	-118
▁ze	-119
ate	-120
▁k	-121
ombe	-122
ra	-123
▁misy	-124
▁ezao	-125
amb	-126
rake	-127
ik	-128
itse	-129
aly	-130
▁le	-131
▁al	-132
anagne	-133
▁fe	-134
im	-135
egne	-136
▁magn	-137
ant	-138
bey	-139
▁andro	-140
as	-141
▁tsi	-142
oke	-143
▁sa	-144
▁andri	-145
ete	-146
ov	-147
iv	-148
atsi	-149
▁ao	-150
▁mp	-151
▁nan	-152
▁zay	-153
▁tika	-154
▁1	-155
ila	-156
▁amp	-157
ahy	-158
arae	-159
▁ndaty	-160
ama	-161
▁mit	-162
▁atao	-163
ambo	-164
ga	-165
nt	-166
ondr	-167
▁izay	-168
ha	-169
oagne	-170
atao	-171
▁amb	-172
▁koahe	-173
▁tandr	-174
ala	-175
alili	-176
atsia	-177
▁p	-178
iagne	-179
ana	-180
aike	-181
otse	-182
is	-183
lo	-184
aregne	-185
dy	-186
▁2	-187
ro	-188
▁azé	-189
▁vo	-190
▁agnombe	-191
ale	-192
ita	-193
boke	-194
▁mbe	-195
angahe	-196
▁andriam	-197
▁ré	-198
▁lehe	-199
▁satsia	-200
oro	-201
▁ah	-202
ok	-203
▁teie	-204
▁feie	-205
ako	-206
eke	-207
ap	-208
▁agne	-209
▁ie	-210
▁fi	-211
▁maro	-212
▁eo	-213
▁bey	-214
ne	-215
ali	-216
▁io	-217
andro	-218
▁af	-219
▁tin	-220
▁reke	-221
▁igne	-222
ikagne	-223
▁zao	-224
anj	-225
▁are	-226
▁hit	-227
▁ts	-228
▁vol	-229
▁naha	-230
ih	-231
er	-232
ela	-233
indr	-234
▁mah	-235
▁foko	-236
▁talili	-237
etse	-238
▁natao	-239
▁b	-240
▁mete	-241
▁sady	-242
ak	-243
do	-244
▁rano	-245
▁androy	-246
▁ma	-247
zo	-248
by	-249
if	-250
▁ey	-251
▁koa	-252
▁ambo	-253
agnaregne	-254
aze	-255
tse	-256
▁hoere	-257
omb	-258
▁nagn	-259
omboke	-260
▁fot	-261
▁taloha	-262
ambe	-263
▁toy	-264
alagne	-265
▁tandroy	-266
ave	-267
aza	-268
▁haz	-269
any	-270
▁hat	-271
▁d	-272
▁han	-273
▁lah	-274
▁mam	-275
▁nif	-276
ign	-277
omang	-278
▁nit	-279
oho	-280
▁raho	-281
▁manao	-282
▁raike	-283
▁tanagne	-284
▁fit	-285
ilasy	-286
▁tane	-287
aont	-288
▁haf	-289
ry	-290
deha	-291
▁agnate	-292
ndr	-293
ats	-294
omba	-295
▁aja	-296
na	-297
▁ampela	-298
mb	-299
ome	-300
▁vaz	-301
ahare	-302
▁nisy	-303
aragne	-304
▁terake	-305
▁bo	-306
▁ne	-307
▁foha	-308
▁faha	-309
▁fagn	-310
asa	-311
ora	-312
azagne	-313
te	-314
ava	-315
▁nam	-316
▁amizay	-317
▁mar	-318
▁and	-319
▁mat	-320
▁tikagne	-321
ilogne	-322
▁mandr	-323
▁j	-324
▁soa	-325
▁be	-326
▁faly	-327
le	-328
orogne	-329
▁managne	-330
io	-331
ono	-332
▁on	-333
agnahare	-334
za	-335
arake	-336
aontsy	-337
▁ajaja	-338
▁roangahe	-339
fa	-340
oly	-341
aolo	-342
iasa	-343
▁tam	-344
▁mang	-345
os	-346
ong	-347
▁fah	-348
▁mba	-349
▁nih	-350
anja	-351
▁tea	-352
▁hoare	-353
da	-354
ina	-355
▁vat	-356
▁hitalili	-357
tsy	-358
regne	-359
▁areo	-360
▁rangahe	-361
▁et	-362
▁rey	-363
ohitse	-364
▁tinalili	-365
dese	-366
▁mip	-367
▁mamp	-368
▁agnarae	-369
andriagne	-370
ohae	-371
ee	-372
▁g	-373
and	-374
▁ay	-375
▁aze	-376
▁far	-377
▁mahaf	-378
▁rehe	-379
▁ondaty	-380
avy	-381
▁nt	-382
▁mif	-383
▁toe	-384
▁izao	-385
▁rene	-386
▁vaho	-387
of	-388
ary	-389
ragn	-390
▁hazomang	-391
tsi	-392
▁roe	-393
iny	-394
ahay	-395
sike	-396
▁manomboke	-397
▁aby	-398
▁mahay	-399
gna	-400
▁saontsy	-401
ge	-402
day	-403
isy	-404
▁niv	-405
▁amae	-406
▁lasa	-407
iry	-408
▁namp	-409
▁lahil	-410
▁nahav	-411
rof	-412
▁ba	-413
▁fan	-414
▁hoeke	-415
ip	-416
▁miv	-417
▁kila	-418
la	-419
▁3	-420
▁tar	-421
anjaka	-422
▁anake	-423
▁c	-424
ivo	-425
▁tao	-426
▁tsim	-427
▁roake	-428
▁ntaolo	-429
▁lahilahy	-430
▁egne	-431
kasike	-432
fe	-433
elo	-434
▁na	-435
alie	-436
▁mahakasike	-437
so	-438
ta	-439
▁20	-440
▁ha	-441
▁it	-442
naho	-443
▁avy	-444
▁ham	-445
▁nah	-446
▁arof	-447
▁tena	-448
▁roandriagne	-449
ena	-450
izay	-451
▁mal	-452
▁nis	-453
ragne	-454
▁hagn	-455
▁telo	-456
iko	-457
ira	-458
isa	-459
▁in	-460
au	-461
avo	-462
one	-463
▁sar	-464
eteke	-465
okake	-466
zagne	-467
ahagne	-468
▁faritse	-469
je	-470
mba	-471
andre	-472
▁hamp	-473
▁tagn	-474
▁voal	-475
elogne	-476
▁hafarae	-477
ce	-478
▁he	-479
▁mih	-480
▁mis	-481
oegne	-482
agnaze	-483
▁agnara	-484
ve	-485
ito	-486
olo	-487
kama	-488
▁nip	-489
etrake	-490
▁sambe	-491
amba	-492
▁reh	-493
▁taf	-494
androy	-495
antika	-496
▁hatae	-497
▁amboas	-498
▁mpanjaka	-499
afe	-500
alo	-501
ont	-502
▁té	-503
atre	-504
onga	-505
▁hav	-506
▁vin	-507
▁mits	-508
▁androany	-509
ata	-510
iae	-511
ino	-512
▁ke	-513
ahaf	-514
akey	-515
▁ako	-516
inagne	-517
ily	-518
kam	-519
okoe	-520
▁azo	-521
▁0	-522
omp	-523
reo	-524
sie	-525
▁ran	-526
otane	-527
▁mahazo	-528
▁tanagney	-529
▁omb	-530
signe	-531
▁raty	-532
ohigne	-533
▁nareo	-534
id	-535
ogn	-536
▁mon	-537
vetse	-538
▁mahav	-539
▁niavy	-540
▁roakemba	-541
itar	-542
▁alim	-543
▁tant	-544
▁tokoe	-545
▁ambane	-546
ovy	-547
▁aza	-548
▁reo	-549
▁von	-550
alake	-551
erake	-552
▁mate	-553
▁voalohae	-554
▁hazomanga	-555
era	-556
iva	-557
oli	-558
▁19	-559
▁kar	-560
▁manj	-561
atonga	-562
▁lambo	-563
▁sokake	-564
▁mateteke	-565
ri	-566
ty	-567
ur	-568
vo	-569
▁is	-570
bory	-571
ombo	-572
▁fam	-573
▁hen	-574
▁nat	-575
▁téo	-576
▁mand	-577
ambaly	-578
▁hatao	-579
▁vohitse	-580
▁antanagne	-581
ho	-582
pi	-583
▁4	-584
ihe	-585
man	-586
▁so	-587
▁foh	-588
▁ire	-589
▁min	-590
ragno	-591
▁indr	-592
▁sasa	-593
▁ombiasa	-594
▁5	-595
kaz	-596
sik	-597
▁say	-598
▁tah	-599
osats	-600
▁teae	-601
▁tedo	-602
▁afake	-603
▁antoe	-604
▁boake	-605
▁lamba	-606
▁mitovy	-607
▁taogne	-608
▁tandreke	-609
iz	-610
azo	-611
gné	-612
▁ia	-613
azae	-614
mbay	-615
▁ato	-616
▁rae	-617
anake	-618
inday	-619
vombe	-620
▁igné	-621
itarita	-622
▁ambone	-623
osatsara	-624
▁ose	-625
▁atoy	-626
▁monja	-627
▁magnamb	-628
▁mandeha	-629
▁nandeha	-630
▁fotoagne	-631
▁ritarita	-632
▁ambovombe	-633
ile	-634
imo	-635
oma	-636
▁ab	-637
imbo	-638
▁ana	-639
▁ndr	-640
▁nja	-641
▁sal	-642
▁hate	-643
▁valy	-644
ma	-645
ato	-646
ier	-647
its	-648
▁bi	-649
▁se	-650
aroe	-651
▁rah	-652
arano	-653
avala	-654
▁baba	-655
▁nanao	-656
▁miomba	-657
▁zagnahare	-658
00	-659
afa	-660
osa	-661
alah	-662
▁aly	-663
azoho	-664
▁tamy	-665
alegne	-666
▁tsara	-667
▁tsisy	-668
agnombe	-669
▁hoareke	-670
▁razagne	-671
▁mandrare	-672
eno	-673
ire	-674
▁ar	-675
▁ny	-676
itra	-677
▁asa	-678
▁fil	-679
▁retsi	-680
▁antika	-681
▁havilasy	-682
12	-683
atr	-684
ene	-685
kav	-686
▁ol	-687
ande	-688
▁kam	-689
ahery	-690
andri	-691
atake	-692
▁hafa	-693
mp	-694
▁6	-695
iav	-696
ola	-697
▁aj	-698
▁as	-699
▁ang	-700
▁eto	-701
▁vao	-702
▁mora	-703
▁tagne	-704
▁nahavia	-705
▁velogne	-706
▁nivilasy	-707
▁amboasare	-708
▁alimosatsara	-709
etr	-710
▁12	-711
regn	-712
sare	-713
▁fin	-714
▁ome	-715
arivo	-716
avelo	-717
vegne	-718
▁loko	-719
▁vali	-720
▁vita	-721
▁vatae	-722
▁tagnaf	-723
ohy	-724
▁ir	-725
jaba	-726
otsy	-727
urce	-728
▁nim	-729
alahy	-730
irake	-731
▁fali	-732
▁hazo	-733
▁kahe	-734
aratse	-735
itagne	-736
okagne	-737
▁abike	-738
▁fomba	-739
▁fahake	-740
▁fanagn	-741
▁source	-742
▁nanagne	-743
▁roandriagney	-744
aa	-745
va	-746
ion	-747
etra	-748
▁nap	-749
▁vil	-750
ambes	-751
▁biby	-752
▁lava	-753
▁roae	-754
▁ahike	-755
▁antign	-756
▁nataoe	-757
amboatse	-758
▁tezagne	-759
▁indraike	-760
▁karazagne	-761
aso	-762
iake	-763
irif	-764
▁ara	-765
▁ent	-766
▁lav	-767
▁sin	-768
amake	-769
igney	-770
▁bara	-771
▁hare	-772
▁zoke	-773
otagne	-774
▁akore	-775
▁agnisa	-776
▁fagnoh	-777
▁agnaragne	-778
▁antandroy	-779
▁mamilogne	-780
▁7	-781
inj	-782
▁lo	-783
itsy	-784
ongo	-785
▁afo	-786
▁lon	-787
▁moa	-788
▁vav	-789
andra	-790
▁lahy	-791
▁mala	-792
▁rake	-793
▁tamp	-794
▁tanj	-795
vohitse	-796
▁sarimbo	-797
cor	-798
mam	-799
▁ga	-800
agna	-801
ilae	-802
otsi	-803
otso	-804
▁hih	-805
▁nil	-806
fagne	-807
indra	-808
▁2012	-809
▁ande	-810
atogne	-811
▁aloha	-812
▁vilasy	-813
▁mahafay	-814
▁maregne	-815
▁mahatonga	-816
▁mipetrake	-817
ts	-818
afo	-819
imba	-820
▁fiv	-821
▁kom	-822
▁loh	-823
ahake	-824
lagne	-825
▁anap	-826
▁mada	-827
▁mara	-828
▁tama	-829
▁fokont	-830
▁minday	-831
▁nandese	-832
▁rangahey	-833
02	-834
mi	-835
ame	-836
ine	-837
sia	-838
▁hi	-839
orae	-840
▁ahy	-841
▁men	-842
ahazo	-843
tegne	-844
▁mpis	-845
▁pike	-846
▁sare	-847
▁vave	-848
omanga	-849
▁ampel	-850
▁magne	-851
▁miara	-852
▁ranoy	-853
▁valie	-854
androae	-855
▁ahandre	-856
▁etoagne	-857
ky	-858
ots	-859
▁nj	-860
▁oh	-861
▁fia	-862
▁her	-863
▁hif	-864
afike	-865
▁kede	-866
▁tsik	-867
▁vola	-868
▁volo	-869
oragne	-870
ovagne	-871
▁arofo	-872
▁hatea	-873
▁mpagn	-874
▁tilae	-875
▁zahay	-876
▁andese	-877
▁antane	-878
▁antimo	-879
▁tafara	-880
avotagne	-881
▁miarake	-882
▁tantara	-883
▁hampahaf	-884
▁mandrake	-885
▁nisamake	-886
▁roangahey	-887
pe	-888
atra	-889
hake	-890
magn	-891
▁his	-892
▁pay	-893
▁voa	-894
iereo	-895
▁anae	-896
▁fehe	-897
▁feno	-898
▁nibo	-899
▁vato	-900
omegne	-901
▁matoa	-902
▁teako	-903
▁ninday	-904
▁faharoe	-905
▁mangaro	-906
▁tamizay	-907
▁vazahay	-908
▁faliiereo	-909
haf	-910
jan	-911
ova	-912
▁ip	-913
ahae	-914
iako	-915
kede	-916
▁has	-917
▁zaf	-918
amena	-919
amosa	-920
asake	-921
drano	-922
sasie	-923
tagne	-924
▁amba	-925
▁fomb	-926
▁samp	-927
▁tomp	-928
▁tsir	-929
▁voat	-930
ampoko	-931
avogne	-932
gnagne	-933
iragne	-934
omotse	-935
▁mipay	-936
▁tsima	-937
andrano	-938
heregne	-939
▁amandr	-940
▁fitera	-941
▁olombe	-942
▁rahalah	-943
▁amantika	-944
ze	-945
▁9	-946
aon	-947
heo	-948
ose	-949
ahav	-950
dodo	-951
enee	-952
isit	-953
seke	-954
▁aia	-955
▁ate	-956
▁gne	-957
▁int	-958
▁kol	-959
▁raz	-960
▁tan	-961
aegne	-962
avemb	-963
gasik	-964
iareo	-965
ondro	-966
▁nome	-967
▁taly	-968
ambole	-969
indray	-970
▁nifot	-971
agnagne	-972
andriam	-973
▁malaza	-974
▁salama	-975
▁samosa	-976
▁tragno	-977
▁lalagne	-978
▁mitsara	-979
▁sarotse	-980
▁sorogne	-981
▁vahoake	-982
agnaregneo	-983
anagnahare	-984
▁madagasik	-985
▁mivilogne	-986
▁tagnafondr	-987
▁antignanagne	-988
▁fagnoharagne	-989
ing	-990
ond	-991
tea	-992
arob	-993
gasy	-994
iamb	-995
mora	-996
vere	-997
▁maf	-998
▁tie	-999
anose	-1000
ikamb	-1001
logne	-1002
▁ambe	-1003
▁fang	-1004
▁foto	-1005
▁hane	-1006
▁masi	-1007
indram	-1008
siagne	-1009
▁fotoe	-1010
▁mande	-1011
▁nifan	-1012
▁afondr	-1013
▁filong	-1014
▁kamisy	-1015
▁talata	-1016
▁ajalahy	-1017
▁anapoko	-1018
▁manjary	-1019
▁nihirif	-1020
▁volagne	-1021
▁niterake	-1022
▁toeragne	-1023
▁magnarake	-1024
▁mangatake	-1025
▁maraindray	-1026
me	-1027
oz	-1028
▁8	-1029
kol	-1030
ona	-1031
▁11	-1032
▁ki	-1033
aova	-1034
maro	-1035
orof	-1036
▁ale	-1037
▁bal	-1038
▁ela	-1039
▁har	-1040
▁hip	-1041
▁isa	-1042
▁mil	-1043
▁tap	-1044
▁teh	-1045
afake	-1046
hetse	-1047
irike	-1048
oroke	-1049
▁ahaf	-1050
▁foty	-1051
▁hand	-1052
▁kele	-1053
▁mena	-1054
▁moly	-1055
▁nang	-1056
▁niav	-1057
arobia	-1058
▁fondr	-1059
▁gnere	-1060
▁ireke	-1061
▁lazae	-1062
▁miagn	-1063
▁tegna	-1064
avembia	-1065
▁androe	-1066
▁mikama	-1067
▁ravala	-1068
▁vazaha	-1069
▁niambes	-1070
kazomanga	-1071
▁aretegne	-1072
▁kedekede	-1073
▁rakembay	-1074
▁tsimaito	-1075
▁amboasary	-1076
▁olombelogne	-1077
▁madagasikara	-1078
ii	-1079
od	-1080
aka	-1081
ija	-1082
▁if	-1083
▁ry	-1084
ants	-1085
oeke	-1086
▁alo	-1087
▁anj	-1088
▁nav	-1089
▁val	-1090
agnae	-1091
ahale	-1092
alaza	-1093
ambey	-1094
aotse	-1095
boake	-1096
▁boke	-1097
▁hery	-1098
▁liae	-1099
▁zane	-1100
amorof	-1101
▁famof	-1102
▁iraho	-1103
▁manga	-1104
▁sambo	-1105
▁sandr	-1106
▁taolo	-1107
ignetse	-1108
▁anareo	-1109
▁tsarae	-1110
▁lonakey	-1111
▁vilogne	-1112
▁ambasare	-1113
▁malagasy	-1114
▁angalagne	-1115
▁retsivere	-1116
▁magnambigne	-1117
▁andriamamorof	-1118
to	-1119
ami	-1120
ati	-1121
ere	-1122
eta	-1123
imb	-1124
ole	-1125
ory	-1126
vaz	-1127
▁22	-1128
▁ak	-1129
▁de	-1130
▁tr	-1131
ampe	-1132
anjo	-1133
aoke	-1134
atae	-1135
oake	-1136
ohin	-1137
▁ank	-1138
▁ino	-1139
▁lio	-1140
▁lov	-1141
▁rem	-1142
▁som	-1143
▁tok	-1144
afady	-1145
areke	-1146
avake	-1147
digne	-1148
pioke	-1149
▁mire	-1150
▁nama	-1151
▁nano	-1152
arotse	-1153
▁andao	-1154
▁hanao	-1155
▁longo	-1156
▁tetsi	-1157
iavagne	-1158
ignagne	-1159
▁aloalo	-1160
▁boseke	-1161
▁kominy	-1162
▁roigne	-1163
▁vazoho	-1164
azantika	-1165
▁halegne	-1166
▁larobia	-1167
▁hihinagne	-1168
▁rahalahie	-1169
▁antanemora	-1170
▁magnambign	-1171
bi	-1172
fi	-1173
age	-1174
gno	-1175
onj	-1176
otr	-1177
tra	-1178
▁bé	-1179
▁oy	-1180
▁ra	-1181
▁to	-1182
ampo	-1183
anae	-1184
apri	-1185
arak	-1186
azat	-1187
iman	-1188
mbre	-1189
teke	-1190
▁lom	-1191
▁mir	-1192
▁mpi	-1193
▁vos	-1194
corne	-1195
iegne	-1196
irano	-1197
ohina	-1198
sagne	-1199
▁hatr	-1200
▁heke	-1201
▁mafé	-1202
▁main	-1203
▁masy	-1204
▁omeo	-1205
anakav	-1206
aretse	-1207
▁agnal	-1208
▁agnar	-1209
▁capri	-1210
▁itika	-1211
▁vonoe	-1212
▁arofoe	-1213
▁henane	-1214
▁kibory	-1215
▁nahazo	-1216
▁tahina	-1217
▁tedodo	-1218
▁masigne	-1219
▁fianakav	-1220
▁manahake	-1221
▁nahatonga	-1222
▁roakembay	-1223
▁andriamaro	-1224
▁capricorne	-1225
▁nagnatogne	-1226
tr	-1227
anc	-1228
ank	-1229
ihy	-1230
koe	-1231
mbo	-1232
▁10	-1233
▁mb	-1234
▁pe	-1235
anan	-1236
endr	-1237
feie	-1238
ikae	-1239
kaze	-1240
▁hil	-1241
▁lan	-1242
▁nen	-1243
▁rel	-1244
▁tih	-1245
▁tsa	-1246
▁ver	-1247
ondry	-1248
ontsa	-1249
▁ajaj	-1250
▁amao	-1251
▁hang	-1252
▁hoho	-1253
▁jaba	-1254
▁miko	-1255
▁sana	-1256
androe	-1257
eragne	-1258
iraike	-1259
regnae	-1260
▁dikae	-1261
▁fehee	-1262
▁isake	-1263
▁mahal	-1264
▁rehav	-1265
androke	-1266
oriagne	-1267
▁alagne	-1268
▁jahale	-1269
otsirake	-1270
▁ampelay	-1271
▁entegne	-1272
▁handeha	-1273
▁magnome	-1274
▁vositse	-1275
antikagne	-1276
indramiry	-1277
mamilogne	-1278
▁vonoegne	-1279
▁magnotane	-1280
▁voatsasie	-1281
ikambanagne	-1282
▁rehavagnae	-1283
▁marotsirake	-1284
▁fanagnandroae	-1285
19	-1286
pa	-1287
ehe	-1288
kao	-1289
mit	-1290
oto	-1291
pit	-1292
▁13	-1293
▁21	-1294
▁en	-1295
▁iz	-1296
▁li	-1297
▁ri	-1298
▁ta	-1299
ahao	-1300
alat	-1301
atsy	-1302
dahy	-1303
ezao	-1304
ialo	-1305
inga	-1306
ndro	-1307
rano	-1308
▁ala	-1309
▁teo	-1310
▁tik	-1311
amaro	-1312
atsof	-1313
indri	-1314
otake	-1315
▁anio	-1316
▁fano	-1317
▁mbeo	-1318
▁ndra	-1319
▁voae	-1320
▁ziva	-1321
ahegne	-1322
ambali	-1323
andese	-1324
▁akoho	-1325
▁anako	-1326
▁farae	-1327
▁haova	-1328
▁rahay	-1329
▁tragn	-1330
▁ataoko	-1331
▁firake	-1332
▁loatse	-1333
▁rehake	-1334
▁tafike	-1335
akevetse	-1336
androaza	-1337
▁ambiasa	-1338
▁lavitse	-1339
▁vazimba	-1340
▁agnondry	-1341
▁taranake	-1342
▁nagnavelo	-1343
▁tandriake	-1344
▁antanagneo	-1345
▁fitiavagne	-1346
▁niambesatse	-1347
▁ahandrefagne	-1348
▁fikambanagne	-1349
▁zafindramiry	-1350
ni	-1351
no	-1352
ari	-1353
eza	-1354
ian	-1355
mbe	-1356
ony	-1357
oty	-1358
tae	-1359
▁30	-1360
▁ja	-1361
afae	-1362
ance	-1363
atie	-1364
aure	-1365
itae	-1366
mang	-1367
onje	-1368
pake	-1369
seau	-1370
tanj	-1371
▁foe	-1372
▁lak	-1373
▁lel	-1374
▁nas	-1375
▁nje	-1376
alily	-1377
ampit	-1378
anako	-1379
haino	-1380
iloke	-1381
olike	-1382
▁aman	-1383
▁amor	-1384
▁bage	-1385
▁famp	-1386
▁gaga	-1387
▁gana	-1388
▁lahi	-1389
▁mama	-1390
▁mpan	-1391
▁niha	-1392
aligno	-1393
andrae	-1394
antara	-1395
aureau	-1396
oratse	-1397
ototse	-1398
▁disit	-1399
▁fahaf	-1400
▁fisia	-1401
▁irehe	-1402
▁miala	-1403
▁nahaf	-1404
▁nahat	-1405
▁nahaz	-1406
▁niavi	-1407
▁nilay	-1408
▁renee	-1409
ambatse	-1410
itragne	-1411
janogne	-1412
▁mahery	-1413
▁mifand	-1414
anampoko	-1415
arehetse	-1416
avaratse	-1417
omasigne	-1418
ondrogne	-1419
▁tihoeke	-1420
▁fombandr	-1421
▁hoeiareo	-1422
▁vintagne	-1423
▁fokontane	-1424
▁mangalake	-1425
▁nagnotane	-1426
▁niheregne	-1427
▁fondravala	-1428
▁lahialegne	-1429
▁ankazomanga	-1430
▁nifanambaly	-1431
andriamagnaregne	-1432
nj	-1433
ns	-1434
po	-1435
▁à	-1436
aky	-1437
amy	-1438
iza	-1439
soa	-1440
tre	-1441
▁15	-1442
▁23	-1443
▁or	-1444
▁ti	-1445
alae	-1446
inae	-1447
ndra	-1448
▁aba	-1449
▁hay	-1450
▁hik	-1451
▁lal	-1452
▁lol	-1453
▁miz	-1454
▁nir	-1455
▁niz	-1456
▁sah	-1457
▁toa	-1458
▁zoe	-1459
aloke	-1460
anagn	-1461
ancer	-1462
aogne	-1463
atane	-1464
neheo	-1465
olahy	-1466
▁fohi	-1467
▁hita	-1468
▁lany	-1469
▁miak	-1470
▁mpit	-1471
▁sira	-1472
alatse	-1473
ambara	-1474
anjake	-1475
asatse	-1476
atsima	-1477
avagne	-1478
ndreke	-1479
olotse	-1480
osetse	-1481
▁afara	-1482
▁arake	-1483
▁ataoe	-1484
▁hagno	-1485
▁mifan	-1486
▁nambo	-1487
▁voate	-1488
agnitse	-1489
iambita	-1490
tanjeke	-1491
▁agnamb	-1492
▁fangat	-1493
▁malake	-1494
▁marare	-1495
▁nampit	-1496
▁nimate	-1497
▁rahosa	-1498
▁tanora	-1499
▁azafady	-1500
▁niboaha	-1501
▁teneheo	-1502
averegnae	-1503
▁lovatsof	-1504
▁fokontany	-1505
▁namorogne	-1506
▁nanomboke	-1507
▁arofototse	-1508
▁sayvohitse	-1509
▁andriatsima	-1510
▁filongoagne	-1511
▁mahalomotse	-1512
▁fianakaviagne	-1513
▁magnambignaze	-1514
▁tetsiavotagne	-1515
mo	-1516
tu	-1517
ets	-1518
ias	-1519
iss	-1520
ove	-1521
▁01	-1522
▁02	-1523
▁14	-1524
▁il	-1525
▁iv	-1526
▁iy	-1527
▁me	-1528
ages	-1529
agno	-1530
ahin	-1531
ainy	-1532
akeo	-1533
anty	-1534
here	-1535
loha	-1536
omih	-1537
onoe	-1538
poke	-1539
▁200	-1540
▁beh	-1541
▁fih	-1542
▁hah	-1543
▁haj	-1544
▁mik	-1545
▁sor	-1546
▁tez	-1547
▁tso	-1548
▁vov	-1549
▁àzo	-1550
amare	-1551
arike	-1552
fogne	-1553
ierge	-1554
isake	-1555
itake	-1556
ondra	-1557
taire	-1558
▁anko	-1559
▁fana	-1560
▁fito	-1561
▁iaby	-1562
▁jiny	-1563
▁lion	-1564
▁maho	-1565
▁mana	-1566
▁maso	-1567
▁mile	-1568
▁nale	-1569
▁nand	-1570
▁nire	-1571
▁pali	-1572
▁togn	-1573
▁tsih	-1574
▁vogn	-1575
andrem	-1576
etraka	-1577
▁alija	-1578
▁andin	-1579
▁fahat	-1580
▁pages	-1581
aliegne	-1582
andraha	-1583
feragne	-1584
hafarae	-1585
▁andevo	-1586
▁hariva	-1587
▁mamono	-1588
▁manamp	-1589
▁ohatre	-1590
▁ohatse	-1591
▁reneko	-1592
▁tarign	-1593
▁tsimir	-1594
▁valala	-1595
▁balance	-1596
▁reketse	-1597
▁taureau	-1598
▁tearano	-1599
▁tinainy	-1600
▁tomboke	-1601
▁tsiriry	-1602
▁verseau	-1603
manomboke	-1604
▁avaratse	-1605
▁jabajaba	-1606
▁kolontsa	-1607
▁miarakam	-1608
▁rangaheo	-1609
omihalagne	-1610
▁tikagnaze	-1611
▁tarignandroke	-1612
di	-1613
ea	-1614
fo	-1615
go	-1616
ib	-1617
jo	-1618
zy	-1619
ime	-1620
oae	-1621
oka	-1622
tri	-1623
▁fo	-1624
▁gé	-1625
▁la	-1626
▁mg	-1627
arao	-1628
avee	-1629
gnae	-1630
iaba	-1631
lasa	-1632
meau	-1633
nisy	-1634
otre	-1635
pion	-1636
sara	-1637
▁mbo	-1638
▁mid	-1639
▁ray	-1640
▁tes	-1641
▁tra	-1642
afara	-1643
afiry	-1644
ambal	-1645
anana	-1646
botsy	-1647
isson	-1648
satse	-1649
▁aleo	-1650
▁ants	-1651
▁bory	-1652
▁fale	-1653
▁fate	-1654
▁gola	-1655
▁hale	-1656
▁hoet	-1657
▁mami	-1658
▁mavo	-1659
▁miza	-1660
▁nanj	-1661
▁scor	-1662
▁vilo	-1663
agnisa	-1664
akagne	-1665
atagne	-1666
gnaivo	-1667
gnatse	-1668
iregne	-1669
ohagne	-1670
ohotse	-1671
ologne	-1672
ontolo	-1673
▁amako	-1674
▁ampin	-1675
▁andev	-1676
▁hipay	-1677
iterake	-1678
ondrano	-1679
▁andran	-1680
▁mizara	-1681
▁tanose	-1682
▁vierge	-1683
▁haligno	-1684
▁hatrake	-1685
▁hevetse	-1686
▁hoereke	-1687
▁lahiman	-1688
▁mahitsy	-1689
▁sabotsy	-1690
▁taligne	-1691
▁taranty	-1692
▁vitagne	-1693
▁hareagne	-1694
▁lanirano	-1695
▁magnomey	-1696
▁nifotora	-1697
▁nihamaro	-1698
▁nihirifa	-1699
▁scorpion	-1700
▁vignetse	-1701
▁ahafohina	-1702
▁manambaly	-1703
▁manokagne	-1704
▁alijadigne	-1705
▁ambognaivo	-1706
▁mahavazoho	-1707
▁fomihalagne	-1708
▁mahafohigne	-1709
▁hampahafohigne	-1710
01	-1711
ny	-1712
ani	-1713
dia	-1714
git	-1715
ote	-1716
ovo	-1717
sio	-1718
▁ad	-1719
▁no	-1720
▁po	-1721
aeko	-1722
angy	-1723
aram	-1724
avel	-1725
fale	-1726
igna	-1727
ilie	-1728
ilip	-1729
lier	-1730
rang	-1731
ture	-1732
▁abe	-1733
▁hoh	-1734
▁lil	-1735
▁mim	-1736
▁sak	-1737
▁tor	-1738
arako	-1739
araty	-1740
ation	-1741
gnaze	-1742
itane	-1743
jagne	-1744
koake	-1745
onoae	-1746
vagne	-1747
▁anao	-1748
▁etoa	-1749
▁fara	-1750
▁fatr	-1751
▁fohy	-1752
▁hila	-1753
▁holy	-1754
▁laha	-1755
▁ndre	-1756
▁sagn	-1757
▁semp	-1758
▁tera	-1759
afotse	-1760
andeha	-1761
omagne	-1762
orombe	-1763
soagne	-1764
▁agnoh	-1765
▁anito	-1766
▁ankam	-1767
▁areke	-1768
▁arete	-1769
▁fitah	-1770
▁maike	-1771
▁marom	-1772
▁maroy	-1773
▁matey	-1774
▁mitse	-1775
▁niazo	-1776
▁nibey	-1777
▁rehaf	-1778
▁relay	-1779
▁riaba	-1780
▁sagit	-1781
▁tombo	-1782
▁tompo	-1783
areagne	-1784
asiloke	-1785
azatika	-1786
▁agnali	-1787
▁cancer	-1788
▁gémeau	-1789
▁mainte	-1790
▁mandeh	-1791
▁nalaza	-1792
▁napetr	-1793
▁olagne	-1794
▁tiagne	-1795
▁tsivaz	-1796
▁vinono	-1797
ondragne	-1798
otsifale	-1799
▁andindo	-1800
▁fihaino	-1801
▁namoake	-1802
▁poisson	-1803
▁sokakeo	-1804
▁tanjoho	-1805
▁vavindr	-1806
etsevetse	-1807
▁mirehake	-1808
▁sempotse	-1809
▁sinokake	-1810
▁tsipioke	-1811
▁vahoakey	-1812
indriarivo	-1813
▁magnavelo	-1814
▁miarakama	-1815
▁mihinagne	-1816
▁nanambaly	-1817
▁nipetrake	-1818
▁zanampoko	-1819
▁anagnahare	-1820
▁fiaignagne	-1821
▁fivoriagne	-1822
▁mpagnarivo	-1823
▁retsikoake	-1824
▁roazantika	-1825
▁sagittaire	-1826
▁amantikagne	-1827
▁ambondrogne	-1828
▁tsimirandra	-1829
▁hampahafohin	-1830
▁tamparehetse	-1831
▁afondriambita	-1832
▁lahimanasatse	-1833
▁miagnavaratse	-1834
▁andriatsimaito	-1835
▁tagnafotsifale	-1836
▁andrianagnahare	-1837
ez	-1838
ij	-1839
aja	-1840
bae	-1841
dis	-1842
ese	-1843
ife	-1844
int	-1845
mat	-1846
mih	-1847
ven	-1848
▁03	-1849
▁da	-1850
▁za	-1851
ahia	-1852
aoro	-1853
aran	-1854
arta	-1855
atea	-1856
bake	-1857
baro	-1858
etea	-1859
iapi	-1860
itre	-1861
misy	-1862
oabo	-1863
ofoe	-1864
onda	-1865
orot	-1866
siae	-1867
tane	-1868
volo	-1869
▁100	-1870
▁aha	-1871
▁efe	-1872
▁fol	-1873
▁kin	-1874
▁len	-1875
▁nio	-1876
▁rav	-1877
▁sas	-1878
▁sav	-1879
▁tia	-1880
ahiny	-1881
alava	-1882
amafe	-1883
amaky	-1884
avoae	-1885
eteie	-1886
fetse	-1887
indro	-1888
katse	-1889
sareo	-1890
▁boro	-1891
▁fire	-1892
▁hako	-1893
▁heje	-1894
▁hile	-1895
▁holi	-1896
▁home	-1897
▁itoy	-1898
▁kazy	-1899
▁lako	-1900
▁mare	-1901
▁mila	-1902
▁nefa	-1903
▁noho	-1904
▁sats	-1905
▁tana	-1906
▁vere	-1907
▁zaho	-1908
ahandr	-1909
amigne	-1910
amizao	-1911
artage	-1912
avegne	-1913
enogne	-1914
iavake	-1915
omangi	-1916
satsia	-1917
▁agnas	-1918
▁ambal	-1919
▁andon	-1920
▁ankav	-1921
▁antsi	-1922
▁hahav	-1923
▁hoeio	-1924
▁izaho	-1925
▁kagne	-1926
▁lohae	-1927
▁mahat	-1928
▁menar	-1929
▁nagne	-1930
▁nipay	-1931
▁raeko	-1932
▁roaza	-1933
▁tokat	-1934
agnogne	-1935
antatse	-1936
aondaty	-1937
▁ajajay	-1938
▁bageda	-1939
▁beteke	-1940
▁leliae	-1941
▁lomaho	-1942
▁mahita	-1943
▁maitsy	-1944
▁mampit	-1945
▁mifagn	-1946
▁mitiry	-1947
▁nikama	-1948
▁njatie	-1949
▁riakey	-1950
▁somare	-1951
▁tsigne	-1952
andregne	-1953
▁andevoe	-1954
▁fagnahy	-1955
▁hoeigne	-1956
▁lefogne	-1957
▁magneno	-1958
▁mandika	-1959
▁miboake	-1960
▁nalagne	-1961
▁tahinae	-1962
▁vazahao	-1963
▁voatere	-1964
▁vorogne	-1965
▁anovagne	-1966
▁finoagne	-1967
▁mahakama	-1968
▁malalake	-1969
▁misaotse	-1970
▁nandesee	-1971
▁remahazo	-1972
▁tanagneo	-1973
▁tanjogne	-1974
▁tsodrano	-1975
▁volamena	-1976
▁alimareke	-1977
▁antikagne	-1978
▁hamboatse	-1979
▁lohavogne	-1980
▁maharetse	-1981
▁miheregne	-1982
▁misorogne	-1983
▁namboatse	-1984
▁rehafegne	-1985
▁sagnatsia	-1986
▁sandratse	-1987
▁tesomangi	-1988
roandriagne	-1989
▁mampiavake	-1990
▁nahavazoho	-1991
▁nahazoagne	-1992
▁amanagnombe	-1993
▁famoforagne	-1994
▁kolontsaigne	-1995
▁lovatsofigne	-1996
▁roandriagneo	-1997
▁manindriarivo	-1998
▁tagnafondravoae	-1999
ym	-2000
yn	-2001
év	-2002
aia	-2003
gni	-2004
kae	-2005
kap	-2006
kit	-2007
mip	-2008
mis	-2009
nja	-2010
oky	-2011
ore	-2012
rou	-2013
une	-2014
▁ap	-2015
▁je	-2016
▁nà	-2017
akao	-2018
amat	-2019
anak	-2020
anta	-2021
aroa	-2022
gako	-2023
irae	-2024
lahy	-2025
odid	-2026
ogno	-2027
okol	-2028
omar	-2029
omet	-2030
otra	-2031
otro	-2032
oviz	-2033
sabo	-2034
sena	-2035
siko	-2036
sira	-2037
vave	-2038
▁194	-2039
▁abo	-2040
▁ano	-2041
▁avi	-2042
▁com	-2043
▁dia	-2044
▁eke	-2045
▁fat	-2046
▁fis	-2047
▁hiv	-2048
▁hol	-2049
▁kor	-2050
▁let	-2051
▁mav	-2052
▁rap	-2053
▁tav	-2054
▁tev	-2055
▁toh	-2056
▁vit	-2057
ahelo	-2058
arama	-2059
arare	-2060
aroke	-2061
ineke	-2062
irafe	-2063
irifa	-2064
nigne	-2065
onaho	-2066
otsie	-2067
roupe	-2068
zogne	-2069
▁anay	-2070
▁ante	-2071
▁aoly	-2072
▁dika	-2073
▁isik	-2074
▁kane	-2075
▁lili	-2076
▁loha	-2077
▁mino	-2078
▁noly	-2079
▁rave	-2080
▁raza	-2081
▁rese	-2082
▁réhe	-2083
▁sail	-2084
▁tame	-2085
▁teao	-2086
▁toli	-2087
▁tomb	-2088
▁tsin	-2089
▁téie	-2090
▁vava	-2091
▁vihe	-2092
▁vole	-2093
▁zafe	-2094
▁zaza	-2095
alohae	-2096
amandr	-2097
ampagn	-2098
atetse	-2099
boegne	-2100
fanagn	-2101
ombola	-2102
onegne	-2103
▁ampan	-2104
▁antan	-2105
▁atoly	-2106
▁fahav	-2107
▁fiter	-2108
▁haiko	-2109
▁hatra	-2110
▁ipetr	-2111
▁irake	-2112
▁mbola	-2113
▁nikam	-2114
▁nomea	-2115
▁tiasa	-2116
▁troke	-2117
▁tsiny	-2118
▁valio	-2119
▁zoken	-2120
iambane	-2121
ihirifa	-2122
▁ahandr	-2123
▁akanjo	-2124
▁andafe	-2125
▁anjara	-2126
▁behara	-2127
▁beloha	-2128
▁groupe	-2129
▁inogne	-2130
▁mampis	-2131
▁masake	-2132
▁nahare	-2133
▁namale	-2134
▁namono	-2135
▁nampid	-2136
▁nihane	-2137
▁tavela	-2138
▁temaro	-2139
▁valiko	-2140
▁vereke	-2141
ilipotse	-2142
▁andesee	-2143
▁lahatse	-2144
▁rapiapi	-2145
▁tompond	-2146
▁vovogne	-2147
ambitagne	-2148
atiolotse	-2149
▁ahandref	-2150
▁antragno	-2151
▁filongoa	-2152
▁hareandr	-2153
▁hoeigney	-2154
▁magnampe	-2155
▁magnialo	-2156
▁maromaro	-2157
▁mimirike	-2158
▁razambey	-2159
▁sailambo	-2160
▁vavarano	-2161
ahafohigne	-2162
▁nifotorae	-2163
▁nihinagne	-2164
▁nipetraka	-2165
▁renevegne	-2166
▁fanagnagne	-2167
▁fitahiagne	-2168
▁hazomangay	-2169
▁maragnitse	-2170
▁mpisarotse	-2171
▁ahandroegne	-2172
▁rapiapiamena	-2173
▁fombandrazagne	-2174
▁hareandravembia	-2175
▁tandreketanjeke	-2176
21	-2177
ad	-2178
ci	-2179
jy	-2180
ly	-2181
ob	-2182
ue	-2183
ul	-2184
vy	-2185
aaa	-2186
abo	-2187
dit	-2188
ele	-2189
itr	-2190
jee	-2191
koy	-2192
miv	-2193
ril	-2194
sak	-2195
tin	-2196
zae	-2197
évr	-2198
▁17	-2199
▁ju	-2200
▁nd	-2201
▁sy	-2202
ahak	-2203
ahee	-2204
alao	-2205
anao	-2206
anga	-2207
ante	-2208
aosa	-2209
arey	-2210
ariv	-2211
azoh	-2212
babe	-2213
baly	-2214
boka	-2215
faly	-2216
ibey	-2217
ikao	-2218
injo	-2219
jaka	-2220
kazo	-2221
lehe	-2222
nagn	-2223
neko	-2224
onee	-2225
oroa	-2226
sika	-2227
voro	-2228
▁fif	-2229
▁fiz	-2230
▁iar	-2231
▁ihe	-2232
▁kir	-2233
▁mas	-2234
▁maz	-2235
▁nik	-2236
▁roy	-2237
▁sik	-2238
▁sns	-2239
▁vel	-2240
▁vor	-2241
agnao	-2242
ahoro	-2243
alako	-2244
alama	-2245
anaho	-2246
atoke	-2247
imbao	-2248
iraik	-2249
itika	-2250
oatse	-2251
oetse	-2252
orake	-2253
zaoza	-2254
▁ahav	-2255
▁ahit	-2256
▁amio	-2257
▁basy	-2258
▁comm	-2259
▁dada	-2260
▁dame	-2261
▁faho	-2262
▁fand	-2263
▁fisi	-2264
▁haha	-2265
▁hana	-2266
▁hisy	-2267
▁katr	-2268
▁koba	-2269
▁lamb	-2270
▁lefe	-2271
▁loza	-2272
▁mahe	-2273
▁mars	-2274
▁mary	-2275
▁mial	-2276
▁miha	-2277
▁miov	-2278
▁mise	-2279
▁nife	-2280
▁nove	-2281
▁pejy	-2282
▁rafo	-2283
▁sata	-2284
▁sija	-2285
▁tato	-2286
▁tegn	-2287
▁teto	-2288
▁vaha	-2289
▁vata	-2290
▁zoma	-2291
afigne	-2292
afomba	-2293
aharoe	-2294
anegne	-2295
arioke	-2296
atsake	-2297
atseke	-2298
hoagne	-2299
injake	-2300
izagne	-2301
ofotsy	-2302
okatse	-2303
olagne	-2304
ulture	-2305
▁andal	-2306
▁angat	-2307
▁arivo	-2308
▁atoro	-2309
▁famos	-2310
▁mahas	-2311
▁manah	-2312
▁miasa	-2313
▁nator	-2314
▁nipol	-2315
▁niter	-2316
▁razae	-2317
▁saont	-2318
▁vande	-2319
▁vazoh	-2320
▁vigne	-2321
▁viheo	-2322
▁voloe	-2323
akandro	-2324
andrefa	-2325
antsoly	-2326
orotoro	-2327
▁fagnaf	-2328
▁famaky	-2329
▁hamono	-2330
▁hataoe	-2331
▁hikama	-2332
▁ialako	-2333
▁jahoro	-2334
▁kabaro	-2335
▁lahady	-2336
▁lonake	-2337
▁manese	-2338
▁manoro	-2339
▁masira	-2340
▁miharo	-2341
▁nataho	-2342
▁tarana	-2343
▁toetra	-2344
agnandro	-2345
magnialo	-2346
mateteke	-2347
odidigne	-2348
regnagne	-2349
▁agnatee	-2350
▁ambahin	-2351
▁andriat	-2352
▁androae	-2353
▁disitir	-2354
▁fahadis	-2355
▁magnahy	-2356
▁magneke	-2357
▁magnisy	-2358
▁mahabae	-2359
▁nanjary	-2360
▁niafara	-2361
▁nihabey	-2362
▁razambe	-2363
▁roigney	-2364
▁talilie	-2365
▁taranae	-2366
▁tokagne	-2367
andalagne	-2368
omarolahy	-2369
▁amandrae	-2370
▁anampoko	-2371
▁andriake	-2372
▁andromba	-2373
▁asorogne	-2374
▁boakagne	-2375
▁fahatelo	-2376
▁famofora	-2377
▁kobaigne	-2378
▁lakamare	-2379
▁lohotsie	-2380
▁mampiasa	-2381
▁mifampit	-2382
▁mivazoho	-2383
▁nanafike	-2384
▁nitarike	-2385
▁novembre	-2386
inagnahare	-2387
▁agnambone	-2388
▁agnohatse	-2389
▁ambohitse	-2390
▁andalagne	-2391
▁misaontsy	-2392
▁nataondro	-2393
▁tsaraegne	-2394
▁tsivazavo	-2395
iraikiraike	-2396
▁amandrenee	-2397
▁fatiolotse	-2398
▁fombafomba	-2399
▁magnatetse	-2400
▁menarandra	-2401
▁nivignetse	-2402
▁retsipioke	-2403
▁saveregnae	-2404
▁vognofotsy	-2405
▁namboaregne	-2406
▁tsimiambane	-2407
▁andriamahery	-2408
▁andriantsoly	-2409
▁fangatahagne	-2410
10	-2411
20	-2412
aj	-2413
bé	-2414
ki	-2415
né	-2416
ph	-2417
ré	-2418
aey	-2419
aol	-2420
bre	-2421
deh	-2422
dof	-2423
dor	-2424
eng	-2425
ent	-2426
eny	-2427
ety	-2428
fit	-2429
fon	-2430
hii	-2431
ity	-2432
mar	-2433
nel	-2434
nge	-2435
nif	-2436
oni	-2437
som	-2438
tao	-2439
vao	-2440
zie	-2441
▁24	-2442
▁50	-2443
▁ef	-2444
▁ez	-2445
▁ih	-2446
▁né	-2447
▁ok	-2448
afee	-2449
alay	-2450
amak	-2451
amin	-2452
ampi	-2453
anov	-2454
aona	-2455
aray	-2456
aroh	-2457
asoa	-2458
ater	-2459
avao	-2460
avin	-2461
bele	-2462
bike	-2463
dida	-2464
elae	-2465
elom	-2466
enir	-2467
etie	-2468
hako	-2469
ieba	-2470
ifan	-2471
ilay	-2472
inar	-2473
joko	-2474
kake	-2475
kaly	-2476
keke	-2477
mbao	-2478
olav	-2479
olay	-2480
olia	-2481
omob	-2482
reke	-2483
rene	-2484
sake	-2485
teae	-2486
vier	-2487
voke	-2488
▁150	-2489
▁199	-2490
▁abi	-2491
▁ats	-2492
▁dis	-2493
▁ere	-2494
▁feo	-2495
▁hid	-2496
▁ind	-2497
▁kil	-2498
▁lin	-2499
▁mor	-2500
▁roa	-2501
▁soh	-2502
▁sur	-2503
▁tat	-2504
▁ten	-2505
▁tif	-2506
▁vak	-2507
▁vas	-2508
ahasa	-2509
ahiko	-2510
akede	-2511
aleke	-2512
ambra	-2513
anjan	-2514
arabo	-2515
arava	-2516
arehe	-2517
atimo	-2518
dofay	-2519
endre	-2520
etake	-2521
gagne	-2522
ietse	-2523
ifike	-2524
ignae	-2525
iogne	-2526
iziva	-2527
mahay	-2528
mbola	-2529
ohazo	-2530
ohoke	-2531
ongoy	-2532
orike	-2533
tsere	-2534
▁abeo	-2535
▁alae	-2536
▁alif	-2537
▁atsi	-2538
▁bibi	-2539
▁bori	-2540
▁dodo	-2541
▁embo	-2542
▁ereo	-2543
▁fala	-2544
▁fiar	-2545
▁févr	-2546
▁hanj	-2547
▁ilae	-2548
▁kama	-2549
▁long	-2550
▁mali	-2551
▁mave	-2552
▁mian	-2553
▁mive	-2554
▁mosa	-2555
▁mpiv	-2556
▁nene	-2557
▁niko	-2558
▁nits	-2559
▁nàho	-2560
▁tali	-2561
▁tamb	-2562
▁tema	-2563
▁tese	-2564
▁tets	-2565
▁teza	-2566
▁vagn	-2567
▁vaky	-2568
▁zaie	-2569
agnare	-2570
alambo	-2571
amagne	-2572
andava	-2573
andevo	-2574
cembre	-2575
deseko	-2576
elegne	-2577
indrae	-2578
itrabo	-2579
ndraha	-2580
ozogne	-2581
saigne	-2582
▁aigne	-2583
▁amboh	-2584
▁andoh	-2585
▁avril	-2586
▁dogne	-2587
▁fivav	-2588
▁fohie	-2589
▁fotoa	-2590
▁hejee	-2591
▁henay	-2592
▁hoety	-2593
▁kokol	-2594
▁manap	-2595
▁mialy	-2596
▁ranom	-2597
▁réhii	-2598
▁satso	-2599
▁sinih	-2600
▁tambo	-2601
▁taney	-2602
▁tapae	-2603
▁tehoe	-2604
▁toetr	-2605
▁tomob	-2606
ambotse	-2607
atsiaro	-2608
heregna	-2609
ikarabo	-2610
jadigne	-2611
managne	-2612
ognogne	-2613
ondraha	-2614
onoegne	-2615
oragney	-2616
tandroy	-2617
veregne	-2618
▁ambias	-2619
▁amping	-2620
▁anakap	-2621
▁atonda	-2622
▁babako	-2623
▁bélier	-2624
▁fiagne	-2625
▁hangat	-2626
▁haraty	-2627
▁hatono	-2628
▁hihina	-2629
▁kanefa	-2630
▁kodida	-2631
▁mandoa	-2632
▁marine	-2633
▁mendor	-2634
▁mibabe	-2635
▁midika	-2636
▁mikora	-2637
▁mipoli	-2638
▁miroro	-2639
▁mitahy	-2640
▁ndroae	-2641
▁nifagn	-2642
▁nifeno	-2643
▁nimete	-2644
▁nirese	-2645
▁njetie	-2646
▁ozogne	-2647
▁ranoma	-2648
▁reliva	-2649
▁sendra	-2650
▁talily	-2651
▁tarehe	-2652
▁tezate	-2653
▁tsasie	-2654
▁vahiny	-2655
▁voaloh	-2656
▁zoegne	-2657
ataragne	-2658
atomboke	-2659
itsandro	-2660
nignagne	-2661
ometatse	-2662
ondriake	-2663
vegnagne	-2664
vendrano	-2665
▁anadahy	-2666
▁andalat	-2667
▁andrian	-2668
▁ariagne	-2669
▁asiagne	-2670
▁culture	-2671
▁embokao	-2672
▁endreke	-2673
▁fahavaz	-2674
▁fisaont	-2675
▁fitsara	-2676
▁hanegne	-2677
▁hasigne	-2678
▁managna	-2679
▁manjake	-2680
▁menabey	-2681
▁nagneke	-2682
▁nagnino	-2683
▁nagnome	-2684
▁napetra	-2685
▁nataoko	-2686
▁nifalie	-2687
▁njeteie	-2688
▁nomegne	-2689
▁novagne	-2690
▁partage	-2691
▁toliara	-2692
▁tontolo	-2693
▁tsihala	-2694
▁vagnomb	-2695
▁valagne	-2696
▁vatagne	-2697
ignanagne	-2698
▁agnombey	-2699
▁ahafohin	-2700
▁ambendra	-2701
▁ambosare	-2702
▁ankoatse	-2703
▁boribory	-2704
▁hanafike	-2705
▁hatrakam	-2706
▁itikagne	-2707
▁katrafae	-2708
▁mahafale	-2709
▁mamitake	-2710
▁mihoatse	-2711
▁miterake	-2712
▁nahapoke	-2713
▁nampiasa	-2714
▁nanoagne	-2715
▁nifindra	-2716
▁nimasake	-2717
▁terakaly	-2718
▁tsihombe	-2719
agnaregney	-2720
▁agnasaoro	-2721
▁amandroae	-2722
▁amaondaty	-2723
▁ambasarey	-2724
▁antignana	-2725
▁fangataha	-2726
▁faradofay	-2727
▁hanambali	-2728
▁handeseko	-2729
▁hatearano	-2730
▁indrindra	-2731
▁mahafinar	-2732
▁mahonigne	-2733
▁manjirake	-2734
▁mavesatse	-2735
▁miarakamy	-2736
▁namosetse	-2737
▁neferagne	-2738
▁nihirifae	-2739
▁nisaontsy	-2740
▁rayamandr	-2741
▁talignere	-2742
▁tsimanana	-2743
▁afondraosa	-2744
▁ambohitsey	-2745
▁disitirika	-2746
▁disitirike	-2747
▁folakandro	-2748
▁hatramizao	-2749
▁magnatogne	-2750
▁manjavogne	-2751
▁miagnatimo	-2752
▁nampandese	-2753
▁natambatse	-2754
▁tsikiraike	-2755
▁vavindrano	-2756
▁afomarolahy	-2757
▁agnalohotse	-2758
▁ampinomagne	-2759
▁andriakegne	-2760
▁mahavokatse	-2761
▁temaroaloke	-2762
▁tesevohitse	-2763
▁tezatezagne	-2764
▁tsiavotagne	-2765
▁alifosatsara	-2766
▁amanagnahare	-2767
▁amorondriake	-2768
▁fotoagnandro	-2769
▁hasaveregnae	-2770
▁magnamboatse	-2771
▁magnodidigne	-2772
▁milevendrano	-2773
▁tampakevetse	-2774
▁tompondongoy	-2775
▁hagnoitsandro	-2776
▁andranomasigne	-2777
▁tarignandrokey	-2778
23	-2779
59	-2780
eo	-2781
mé	-2782
ahi	-2783
asc	-2784
bay	-2785
boe	-2786
dak	-2787
dey	-2788
dra	-2789
ide	-2790
ima	-2791
ini	-2792
kaf	-2793
kas	-2794
kay	-2795
kel	-2796
let	-2797
mal	-2798
mdr	-2799
nah	-2800
nih	-2801
sep	-2802
soy	-2803
tso	-2804
vav	-2805
zoe	-2806
▁16	-2807
▁ai	-2808
▁dé	-2809
▁hé	-2810
▁ot	-2811
▁va	-2812
▁vy	-2813
▁zo	-2814
ahat	-2815
ahaz	-2816
ahie	-2817
amao	-2818
anto	-2819
arof	-2820
asay	-2821
atio	-2822
befi	-2823
dati	-2824
doza	-2825
fako	-2826
fate	-2827
gaga	-2828
gasc	-2829
hain	-2830
iera	-2831
iler	-2832
iree	-2833
ireo	-2834
iroh	-2835
isae	-2836
itoe	-2837
jera	-2838
jobo	-2839
lako	-2840
maha	-2841
mate	-2842
mete	-2843
mits	-2844
okeo	-2845
oleh	-2846
olie	-2847
onja	-2848
onta	-2849
oroe	-2850
otoa	-2851
ovae	-2852
raho	-2853
robo	-2854
rosa	-2855
sako	-2856
sapa	-2857
soci	-2858
vory	-2859
zaka	-2860
zoro	-2861
▁123	-2862
▁196	-2863
▁198	-2864
▁dor	-2865
▁efa	-2866
▁ene	-2867
▁fid	-2868
▁fij	-2869
▁laf	-2870
▁leh	-2871
▁los	-2872
▁mad	-2873
▁mij	-2874
▁moz	-2875
▁nin	-2876
▁saf	-2877
afeko	-2878
agney	-2879
ahafa	-2880
ahako	-2881
akoho	-2882
alehe	-2883
amaly	-2884
ambop	-2885
anjae	-2886
aramp	-2887
arato	-2888
azaha	-2889
azavo	-2890
eraha	-2891
erina	-2892
gneko	-2893
idava	-2894
ijale	-2895
ikama	-2896
ilefe	-2897
ineko	-2898
itike	-2899
izaho	-2900
mandr	-2901
mbaly	-2902
nagne	-2903
ndaty	-2904
ondre	-2905
ontsi	-2906
orika	-2907
orogn	-2908
otsoe	-2909
patse	-2910
rogne	-2911
tobre	-2912
vande	-2913
ziene	-2914
▁ahio	-2915
▁akoh	-2916
▁anak	-2917
▁atee	-2918
▁azéo	-2919
▁dage	-2920
▁ente	-2921
▁fats	-2922
▁fian	-2923
▁fole	-2924
▁gasy	-2925
▁hoei	-2926
▁horo	-2927
▁ireo	-2928
▁jean	-2929
▁laza	-2930
▁mafe	-2931
▁male	-2932
▁néné	-2933
▁poro	-2934
▁ragn	-2935
▁ramb	-2936
▁satr	-2937
▁sisa	-2938
▁soja	-2939
▁soro	-2940
▁tavo	-2941
▁tsil	-2942
▁vale	-2943
▁valo	-2944
▁vonj	-2945
▁vots	-2946
afatse	-2947
ahatse	-2948
ambane	-2949
ampela	-2950
ananao	-2951
andaty	-2952
anigne	-2953
anjaha	-2954
antsoa	-2955
ataney	-2956
atrake	-2957
azohoa	-2958
beteke	-2959
etseke	-2960
gascar	-2961
ilasie	-2962
injoke	-2963
inogne	-2964
itrake	-2965
ognaze	-2966
ohegne	-2967
okitse	-2968
oliako	-2969
olitse	-2970
onagne	-2971
onigne	-2972
otraze	-2973
riagne	-2974
▁alala	-2975
▁ambav	-2976
▁amity	-2977
▁andav	-2978
▁avara	-2979
▁falie	-2980
▁fande	-2981
▁fanor	-2982
▁fitae	-2983
▁hagne	-2984
▁hamae	-2985
▁hampi	-2986
▁hasie	-2987
▁hasoa	-2988
▁hedey	-2989
▁hoavy	-2990
▁jaime	-2991
▁jaona	-2992
▁maham	-2993
▁mahit	-2994
▁manak	-2995
▁misao	-2996
▁motso	-2997
▁nahay	-2998
▁nande	-2999
▁nomee	-3000
▁ntaol	-3001
▁reneo	-3002
▁tatsi	-3003
▁tigne	-3004
▁tohae	-3005
▁trako	-3006
▁vatoy	-3007
▁volaf	-3008
afaitse	-3009
agnegne	-3010
aliagne	-3011
anandro	-3012
andrian	-3013
andromb	-3014
angagne	-3015
anjanah	-3016
arakara	-3017
aranake	-3018
befialy	-3019
ialagne	-3020
ianatse	-3021
ohineko	-3022
olavola	-3023
ororoke	-3024
sarotse	-3025
▁agnila	-3026
▁agnivo	-3027
▁ahaiza	-3028
▁ahikeo	-3029
▁amigne	-3030
▁ankile	-3031
▁associ	-3032
▁ategna	-3033
▁avenir	-3034
▁heneke	-3035
▁hinday	-3036
▁iaraha	-3037
▁intika	-3038
▁jabele	-3039
▁lambaf	-3040
▁lanjae	-3041
▁mahere	-3042
▁mamale	-3043
▁mamira	-3044
▁mbegne	-3045
▁miseho	-3046
▁mivily	-3047
▁nahavy	-3048
▁naleve	-3049
▁namaky	-3050
▁navale	-3051
▁navory	-3052
▁ndatio	-3053
▁nifand	-3054
▁nilefe	-3055
▁omegne	-3056
▁rehare	-3057
▁roboke	-3058
▁sandra	-3059
▁sarake	-3060
▁tafita	-3061
▁temagn	-3062
▁toagne	-3063
▁valiha	-3064
ahakizay	-3065
androany	-3066
iheregne	-3067
kazomang	-3068
ovizegne	-3069
rangagne	-3070
▁amandro	-3071
▁amboneo	-3072
▁andrano	-3073
▁atsinga	-3074
▁commune	-3075
▁février	-3076
▁handily	-3077
▁hataoko	-3078
▁hatramy	-3079
▁hengako	-3080
▁ifotake	-3081
▁levegne	-3082
▁magnino	-3083
▁mahasoa	-3084
▁mambole	-3085
▁manambo	-3086
▁mialoha	-3087
▁mitagne	-3088
▁mpiziva	-3089
▁niarake	-3090
▁oragney	-3091
▁paliave	-3092
▁sambore	-3093
▁tanjeke	-3094
▁tsivory	-3095
▁vatobey	-3096
▁voaloha	-3097
ambesatse	-3098
ivoaragne	-3099
omasigney	-3100
otaneagne	-3101
▁agnombee	-3102
▁andriman	-3103
▁atelegne	-3104
▁atikagne	-3105
▁atoandro	-3106
▁balahazo	-3107
▁dageagne	-3108
▁ekegneko	-3109
▁fanambal	-3110
▁faritane	-3111
▁hafahafa	-3112
▁hisafiry	-3113
▁kokolamp	-3114
▁lamboala	-3115
▁mahafake	-3116
▁mahafate	-3117
▁mahagaga	-3118
▁mahavelo	-3119
▁mahavita	-3120
▁miafigne	-3121
▁miovaova	-3122
▁mitalili	-3123
▁mivavake	-3124
▁nahaviae	-3125
▁namboare	-3126
▁nentegne	-3127
▁rahavave	-3128
▁sakalava	-3129
▁sampigne	-3130
▁sarimboy	-3131
▁sitragne	-3132
▁teienaho	-3133
▁tikagneo	-3134
▁toroagne	-3135
▁tsilanja	-3136
▁tsinjake	-3137
▁viliegne	-3138
ahandrenee	-3139
amatanjake	-3140
amboaragne	-3141
andremagne	-3142
androeneko	-3143
▁agnalagne	-3144
▁agnaretse	-3145
▁andesegne	-3146
▁andriakey	-3147
▁antsivoro	-3148
▁fampandro	-3149
▁fiheregna	-3150
▁havelogne	-3151
▁havilasie	-3152
▁heveregne	-3153
▁magnafake	-3154
▁mampirafe	-3155
▁managnaze	-3156
▁manambali	-3157
▁manenogne	-3158
▁nagnarake	-3159
▁nametrake	-3160
▁nangalake	-3161
▁nangatake	-3162
▁nijanogne	-3163
▁nisorogne	-3164
▁nitokagne	-3165
▁rabefialy	-3166
▁sandrabey	-3167
▁satsobory	-3168
▁tanterake	-3169
▁tsaboegne	-3170
▁agnambonee	-3171
▁ambanevolo	-3172
▁amboaregne	-3173
▁ambovombey	-3174
▁andalagney	-3175
▁ankavilasy	-3176
▁hazomangao	-3177
▁lomahorano	-3178
▁madagascar	-3179
▁manaoigney	-3180
▁manorotoro	-3181
▁marandrano	-3182
▁miarakamae	-3183
▁mifandogne	-3184
▁mpanoratse	-3185
▁mpisorogne	-3186
▁mpisorombe	-3187
▁natorondro	-3188
▁nipolotake	-3189
▁sandrakede	-3190
▁tokatragno	-3191
▁vetsevetse	-3192
▁zokenanake	-3193
▁amorondrano	-3194
▁association	-3195
▁famosoragne	-3196
▁miakandrefa	-3197
▁mitsororoke	-3198
anjanahataney	-3199
▁ampingaratse	-3200
▁magnambignaz	-3201
▁manampaharoe	-3202
▁mandehandeha	-3203
▁rayamandrene	-3204
▁taligneregne	-3205
▁agnalijadigne	-3206
▁nagnotaneagne	-3207
▁agnarambitagne	-3208
▁mampahafohigne	-3209
▁nampitovizegne	-3210
▁ahandrefagnagne	-3211
▁fampandrosoagne	-3212
▁niterahandrenee	-3213
05	-3214
06	-3215
13	-3216
49	-3217
li	-3218
rr	-3219
st	-3220
up	-3221
▁_	-3222
apa	-3223
bar	-3224
beh	-3225
bin	-3226
bod	-3227
bra	-3228
che	-3229
dio	-3230
ers	-3231
fel	-3232
gos	-3233
hee	-3234
hit	-3235
ido	-3236
iky	-3237
iro	-3238
ise	-3239
isi	-3240
ite	-3241
ivy	-3242
joe	-3243
kar	-3244
kon	-3245
lal	-3246
mpo	-3247
nay	-3248
nis	-3249
odr	-3250
ofo	-3251
ohe	-3252
ort	-3253
pea	-3254
pte	-3255
rin	-3256
sin	-3257
sol	-3258
toe	-3259
vee	-3260
vol	-3261
▁04	-3262
▁06	-3263
▁18	-3264
▁28	-3265
▁31	-3266
▁70	-3267
▁el	-3268
▁es	-3269
▁fl	-3270
▁km	-3271
▁oc	-3272
▁pi	-3273
▁py	-3274
akal	-3275
alas	-3276
amam	-3277
amif	-3278
anat	-3279
anee	-3280
ango	-3281
anjy	-3282
anny	-3283
anoy	-3284
aota	-3285
araz	-3286
arok	-3287
atap	-3288
atim	-3289
atoe	-3290
avae	-3291
azan	-3292
baka	-3293
bako	-3294
eake	-3295
ente	-3296
eran	-3297
etsy	-3298
foha	-3299
gnat	-3300
hent	-3301
iana	-3302
ihot	-3303
inay	-3304
ingo	-3305
inny	-3306
inty	-3307
ipay	-3308
itoy	-3309
izao	-3310
jaja	-3311
kafe	-3312
kako	-3313
kira	-3314
ohaf	-3315
ohao	-3316
ohit	-3317
olol	-3318
ompi	-3319
paia	-3320
poko	-3321
raha	-3322
saka	-3323
vola	-3324
zoke	-3325
▁127	-3326
▁afe	-3327
▁amo	-3328
▁ani	-3329
▁bes	-3330
▁bev	-3331
▁fik	-3332
▁fon	-3333
▁gol	-3334
▁hin	-3335
▁imp	-3336
▁jan	-3337
▁kay	-3338
▁lia	-3339
▁mai	-3340
▁naj	-3341
▁nao	-3342
▁nid	-3343
▁nor	-3344
▁pat	-3345
▁rao	-3346
▁rev	-3347
▁roi	-3348
▁sir	-3349
▁voh	-3350
▁ziv	-3351
aaaaa	-3352
agnit	-3353
ajaja	-3354
alats	-3355
alike	-3356
alita	-3357
ambol	-3358
amoka	-3359
amora	-3360
ampoe	-3361
anosy	-3362
antoe	-3363
arana	-3364
arofo	-3365
avako	-3366
boaha	-3367
draha	-3368
drene	-3369
elako	-3370
ezate	-3371
figne	-3372
gnabo	-3373
hagne	-3374
hegne	-3375
imbaz	-3376
inana	-3377
inoae	-3378
inono	-3379
itoka	-3380
janae	-3381
legne	-3382
manao	-3383
najoe	-3384
njato	-3385
olake	-3386
olili	-3387
ombey	-3388
onagn	-3389
onang	-3390
onono	-3391
orano	-3392
otroe	-3393
ovaho	-3394
ovela	-3395
regna	-3396
ropit	-3397
sambe	-3398
tegna	-3399
ymiry	-3400
zaiae	-3401
▁1000	-3402
▁ahae	-3403
▁amie	-3404
▁anat	-3405
▁aolo	-3406
▁babe	-3407
▁bala	-3408
▁doko	-3409
▁egni	-3410
▁endr	-3411
▁etoy	-3412
▁fihe	-3413
▁fofo	-3414
▁goro	-3415
▁haho	-3416
▁haso	-3417
▁hena	-3418
▁hihe	-3419
▁hira	-3420
▁iare	-3421
▁iheo	-3422
▁inde	-3423
▁jera	-3424
▁jona	-3425
▁kats	-3426
▁kina	-3427
▁loho	-3428
▁maka	-3429
▁mibo	-3430
▁mpam	-3431
▁mpih	-3432
▁nala	-3433
▁nana	-3434
▁nate	-3435
▁noli	-3436
▁omea	-3437
▁oseo	-3438
▁rako	-3439
▁rame	-3440
▁rang	-3441
▁rava	-3442
▁saro	-3443
▁tami	-3444
▁tovo	-3445
▁tsip	-3446
▁vala	-3447
▁vara	-3448
▁vide	-3449
▁voas	-3450
akatse	-3451
alahae	-3452
aleale	-3453
aligne	-3454
amboho	-3455
andria	-3456
angaro	-3457
anjara	-3458
anovae	-3459
avahae	-3460
avalat	-3461
diakae	-3462
etegne	-3463
hainoe	-3464
hentea	-3465
ignaby	-3466
ikaosy	-3467
inegne	-3468
ipotse	-3469
itobra	-3470
itogne	-3471
minday	-3472
oabots	-3473
ohetse	-3474
ombaze	-3475
ondran	-3476
ontene	-3477
ontsoy	-3478
otanea	-3479
otegne	-3480
poagne	-3481
ragney	-3482
sikope	-3483
talili	-3484
toagne	-3485
▁agniv	-3486
▁aharo	-3487
▁akata	-3488
▁aloke	-3489
▁ambey	-3490
▁aminy	-3491
▁ankir	-3492
▁antev	-3493
▁aogos	-3494
▁arabo	-3495
▁atika	-3496
▁fagna	-3497
▁fandr	-3498
▁fanov	-3499
▁fiova	-3500
▁gabin	-3501
▁hahaf	-3502
▁hakeo	-3503
▁hakoy	-3504
▁hanee	-3505
▁hejeo	-3506
▁hetra	-3507
▁hifan	-3508
▁hilee	-3509
▁hoaze	-3510
▁hoeze	-3511
▁iereo	-3512
▁intia	-3513
▁intoy	-3514
▁iraha	-3515
▁jolay	-3516
▁kamae	-3517
▁kapit	-3518
▁karaz	-3519
▁kobay	-3520
▁latim	-3521
▁liako	-3522
▁loloh	-3523
▁loloy	-3524
▁manin	-3525
▁maota	-3526
▁masae	-3527
▁mikor	-3528
▁namae	-3529
▁nandr	-3530
▁niala	-3531
▁nifak	-3532
▁nihay	-3533
▁nisia	-3534
▁nizoe	-3535
▁nofoe	-3536
▁nonoe	-3537
▁rahao	-3538
▁raven	-3539
▁reheo	-3540
▁sahio	-3541
▁sasae	-3542
▁sekit	-3543
▁septe	-3544
▁talat	-3545
▁tonga	-3546
▁tonta	-3547
▁tsing	-3548
▁volov	-3549
▁votre	-3550
▁zagne	-3551
alasala	-3552
ananake	-3553
anjomba	-3554
aoragne	-3555
arakaze	-3556
avakaze	-3557
azafady	-3558
bakotri	-3559
bohegne	-3560
dakiler	-3561
gnandro	-3562
gnatara	-3563
ilaogne	-3564
itarazo	-3565
koligne	-3566
nandeha	-3567
olehole	-3568
omoetse	-3569
ondrake	-3570
onoagne	-3571
regnako	-3572
▁agnafo	-3573
▁agnala	-3574
▁ambali	-3575
▁ambine	-3576
▁andala	-3577
▁andido	-3578
▁andria	-3579
▁arofoo	-3580
▁dadabe	-3581
▁esanta	-3582
▁fagnaz	-3583
▁fahale	-3584
▁fanomp	-3585
▁foetse	-3586
▁hagnav	-3587
▁hamale	-3588
▁handro	-3589
▁heregn	-3590
▁hileko	-3591
▁hisoro	-3592
▁hitahy	-3593
▁hoereo	-3594
▁ilagne	-3595
▁impito	-3596
▁indone	-3597
▁irehaf	-3598
▁ivelom	-3599
▁jabaja	-3600
▁kaboke	-3601
▁komini	-3602
▁leleke	-3603
▁longoe	-3604
▁mafana	-3605
▁managn	-3606
▁manaha	-3607
▁manelo	-3608
▁masika	-3609
▁mihira	-3610
▁mihisa	-3611
▁miteza	-3612
▁nanohy	-3613
▁narare	-3614
▁nihaga	-3615
▁nihare	-3616
▁niharo	-3617
▁nihita	-3618
▁nisara	-3619
▁nitono	-3620
▁nivaky	-3621
▁ondati	-3622
▁raketa	-3623
▁raotse	-3624
▁robake	-3625
▁salohy	-3626
▁sikala	-3627
▁siloke	-3628
▁sohihy	-3629
▁tahake	-3630
▁tehang	-3631
▁tineza	-3632
▁tsiela	-3633
▁tsigni	-3634
▁tsizay	-3635
▁valoay	-3636
agnombey	-3637
ambesara	-3638
antragno	-3639
atapahee	-3640
bokaboke	-3641
dodododo	-3642
ezatezae	-3643
ieragney	-3644
indraike	-3645
kolontsa	-3646
nisamake	-3647
ohafarae	-3648
ropiteke	-3649
saboagne	-3650
soavagne	-3651
voalohae	-3652
▁agnalim	-3653
▁agnarak	-3654
▁ahitsio	-3655
▁ampalie	-3656
▁ampifan	-3657
▁androyt	-3658
▁antanan	-3659
▁atolike	-3660
▁atorake	-3661
▁avaonja	-3662
▁endrake	-3663
▁fambole	-3664
▁fanapea	-3665
▁fanjaka	-3666
▁fasagne	-3667
▁fihagne	-3668
▁filahia	-3669
▁fotorae	-3670
▁hampihe	-3671
▁hanagne	-3672
▁hanjaka	-3673
▁hanovae	-3674
▁haremdr	-3675
▁henaneo	-3676
▁hitsara	-3677
▁hoeraho	-3678
▁homeako	-3679
▁ialagne	-3680
▁inoagne	-3681
▁isikina	-3682
▁itiagne	-3683
▁janvier	-3684
▁kaaaaaa	-3685
▁letagne	-3686
▁lomagno	-3687
▁lomotse	-3688
▁mahafoe	-3689
▁maharae	-3690
▁mamonje	-3691
▁mandraf	-3692
▁manigne	-3693
▁manimba	-3694
▁manombo	-3695
▁masiake	-3696
▁matotre	-3697
▁matotse	-3698
▁mavande	-3699
▁mikanjy	-3700
▁mikotri	-3701
▁monigne	-3702
▁mozotse	-3703
▁mpiarak	-3704
▁mpisoro	-3705
▁mpivaly	-3706
▁nagnary	-3707
▁namagne	-3708
▁nambara	-3709
▁niboake	-3710
▁nisaont	-3711
▁octobre	-3712
▁oroagne	-3713
▁patante	-3714
▁rangers	-3715
▁rehetra	-3716
▁remieba	-3717
▁sinitoe	-3718
▁siratsy	-3719
▁sokakey	-3720
▁tafikey	-3721
▁tamigne	-3722
▁tanosey	-3723
▁tantane	-3724
▁tantele	-3725
▁taogney	-3726
▁tatsimo	-3727
▁tenogne	-3728
▁tohigne	-3729
▁tsimino	-3730
▁vahoako	-3731
▁vilagne	-3732
▁vilondr	-3733
▁vinalie	-3734
▁vinohae	-3735
▁voasare	-3736
ambaligne	-3737
andremako	-3738
androagne	-3739
andrombae	-3740
angalagne	-3741
anihirifa	-3742
mangalake	-3743
milipotse	-3744
nagnahare	-3745
orognagne	-3746
ragnotane	-3747
sikinagne	-3748
▁agnarake	-3749
▁alohagne	-3750
▁ampanamb	-3751
▁andriana	-3752
▁ankamaro	-3753
▁ateregne	-3754
▁décembre	-3755
▁eferagne	-3756
▁eretsere	-3757
▁fagnafae	-3758
▁fagnater	-3759
▁faliegne	-3760
▁fatratse	-3761
▁fiaignae	-3762
▁hajaegne	-3763
▁hangalae	-3764
▁hanorogn	-3765
▁hikarama	-3766
▁hitanako	-3767
▁hoantika	-3768
▁lakolako	-3769
▁lilitane	-3770
▁loharano	-3771
▁magniake	-3772
▁magnitsy	-3773
▁mahandro	-3774
▁malahelo	-3775
▁manafike	-3776
▁marevoke	-3777
▁misarake	-3778
▁misoroke	-3779
▁miteraha	-3780
▁mivalita	-3781
▁nagnavel	-3782
▁nikisake	-3783
▁okitobra	-3784
▁rahalahy	-3785
▁rakembao	-3786
▁rasiloke	-3787
▁rehareha	-3788
▁sampogne	-3789
▁tagnogne	-3790
▁tandrife	-3791
▁tikagney	-3792
▁tomobile	-3793
▁valasira	-3794
▁volafoty	-3795
▁volohazo	-3796
▁zafeafee	-3797
▁zafymiry	-3798
apakevetse	-3799
arofanigne	-3800
azatikagne	-3801
oabotsoabo	-3802
▁ahikefaly	-3803
▁ambasareo	-3804
▁andonakao	-3805
▁andranavy	-3806
▁andriaman	-3807
▁antanambe	-3808
▁aogositra	-3809
▁begnatara	-3810
▁fagnafoly	-3811
▁fofognabo	-3812
▁hamosetse	-3813
▁haovabory	-3814
▁hisorogne	-3815
▁irakembay	-3816
▁isanandro	-3817
▁lalandava	-3818
▁liondraha	-3819
▁manambovo	-3820
▁mananjara	-3821
▁matanjake	-3822
▁mijanogne	-3823
▁milamigne	-3824
▁milevegne	-3825
▁milipotse	-3826
▁mitsepake	-3827
▁mivesatse	-3828
▁mpanjakay	-3829
▁naharetse	-3830
▁nampinono	-3831
▁nanofigne	-3832
▁nasorogne	-3833
▁nilipotse	-3834
▁nitantara	-3835
▁nitologne	-3836
▁septembre	-3837
▁tavodrene	-3838
▁tinenogne	-3839
▁tokatragn	-3840
ampakevetse	-3841
andranobory	-3842
arakagnombe	-3843
arokegnatse	-3844
bakotribake	-3845
boakediakae	-3846
dakileranjo	-3847
kolontsaina	-3848
▁agnivotane	-3849
▁ambavarano	-3850
▁anapahagne	-3851
▁andoharano	-3852
▁beropiteke	-3853
▁fahoriagne	-3854
▁fivoaragne	-3855
▁hazomangae	-3856
▁horosikope	-3857
▁mandevegne	-3858
▁mangalatse	-3859
▁mitambatse	-3860
▁mpagnarake	-3861
▁nagnontene	-3862
▁napetrakoy	-3863
▁ranomainty	-3864
▁sekitambra	-3865
▁sinambotse	-3866
▁tognognaze	-3867
▁tognonegne	-3868
▁tsikarioke	-3869
androazatika	-3870
▁agnalizaoza	-3871
▁amandroazae	-3872
▁andonakagne	-3873
▁fahavazahay	-3874
▁fanoratagne	-3875
▁fitondragne	-3876
▁fitsaboagne	-3877
▁fivavahagne	-3878
▁hagnoiragne	-3879
▁heregnandro	-3880
▁hitezatezae	-3881
▁indoneziene	-3882
▁ivelomampoe	-3883
▁kilometatse	-3884
▁managnaigne	-3885
▁mifanambaly	-3886
▁nahafohigne	-3887
▁niambesarae	-3888
▁rehehafarae	-3889
▁siniharagne	-3890
▁tapatapahee	-3891
▁tehangalake	-3892
▁vavindranoy	-3893
▁agnalikarabo	-3894
▁ambanendraha	-3895
▁fahadisoagne	-3896
▁hahonignagne	-3897
▁kiraikiraike	-3898
▁kokolampogne	-3899
▁mendoravegne	-3900
▁mpiarakandro	-3901
▁nampidiregne	-3902
▁ranomilaogne	-3903
▁ampingaratsey	-3904
▁andalantragno	-3905
▁fisaontsoagne	-3906
▁mampisarakaze	-3907
▁nahatandregne	-3908
▁andriatomoetse	-3909
▁haremdravembia	-3910
▁hoeremanomboke	-3911
▁mangamatanjake	-3912
▁mitsoabotsoabo	-3913
▁nampitondragne	-3914
▁napetrandroaza	-3915
▁nifandieragney	-3916
fanagnandroeneko	-3917
▁ampanambaliegne	-3918
▁fanagnandroaeko	-3919
▁rangaheyhafarae	-3920
▁roakembayhentea	-3921
▁tagnafondravala	-3922
18	-3923
24	-3924
51	-3925
86	-3926
ct	-3927
fr	-3928
ic	-3929
ps	-3930
rt	-3931
ud	-3932
un	-3933
196	-3934
aeh	-3935
aeo	-3936
aor	-3937
ayl	-3938
bol	-3939
del	-3940
doh	-3941
efe	-3942
for	-3943
gmé	-3944
han	-3945
hav	-3946
haz	-3947
hom	-3948
iai	-3949
iar	-3950
ids	-3951
iii	-3952
iki	-3953
ind	-3954
ipe	-3955
iri	-3956
ive	-3957
izà	-3958
jeo	-3959
kil	-3960
kin	-3961
loh	-3962
meo	-3963
mia	-3964
mil	-3965
mir	-3966
nam	-3967
nga	-3968
nie	-3969
nit	-3970
oeo	-3971
raf	-3972
ten	-3973
tol	-3974
vey	-3975
voa	-3976
yst	-3977
▁05	-3978
▁1_	-3979
▁27	-3980
▁37	-3981
▁3_	-3982
▁58	-3983
▁dr	-3984
▁rn	-3985
▁vé	-3986
akaf	-3987
alia	-3988
alim	-3989
aman	-3990
amby	-3991
anti	-3992
arat	-3993
aree	-3994
atee	-3995
avia	-3996
avoh	-3997
bara	-3998
bata	-3999
09	-4000
22	-4001
idy	-4002
mif	-4003
roi	-4004
▁2_	-4005
▁51	-4006
▁60	-4007
▁do	-4008
▁om	-4009
▁ve	-4010
alev	-4011
arav	-4012
beha	-4013
belo	-4014
bobo	-4015
dage	-4016
doko	-4017
eloe	-4018
empo	-4019
enta	-4020
etao	-4021
godo	-4022
goro	-4023
hena	-4024
ihay	-4025
ihee	-4026
ikor	-4027
ilao	-4028
ilia	-4029
inas	-4030
inde	-4031
irio	-4032
isie	-4033
itsi	-4034
ivre	-4035
jady	-4036
jeke	-4037
kabo	-4038
katy	-4039
lion	-4040
maka	-4041
mara	-4042
mena	-4043
mika	-4044
miny	-4045
neke	-4046
nena	-4047
nibo	-4048
oako	-4049
oaza	-4050
okat	-4051
okil	-4052
olip	-4053
olit	-4054
olof	-4055
oman	-4056
ompa	-4057
onam	-4058
onjo	-4059
onti	-4060
orat	-4061
oria	-4062
orom	-4063
oron	-4064
pike	-4065
pila	-4066
reko	-4067
rese	-4068
rike	-4069
saky	-4070
sese	-4071
sion	-4072
tagn	-4073
tika	-4074
uple	-4075
velo	-4076
voha	-4077
voka	-4078
àgne	-4079
▁113	-4080
▁143	-4081
▁145	-4082
▁197	-4083
▁400	-4084
▁900	-4085
▁ahi	-4086
▁aie	-4087
▁ane	-4088
▁any	-4089
▁ary	-4090
▁bar	-4091
▁col	-4092
▁eka	-4093
▁fip	-4094
▁fir	-4095
▁hir	-4096
▁hiz	-4097
▁iot	-4098
▁ipa	-4099
▁é	-4100
ipa	-4101
jae	-4102
▁ce	-4103
▁ch	-4104
▁jo	-4105
bete	-4106
etae	-4107
foko	-4108
ipal	-4109
liko	-4110
okam	-4111
omav	-4112
omeo	-4113
simb	-4114
tera	-4115
▁bet	-4116
▁ipo	-4117
▁joh	-4118
▁kah	-4119
▁lab	-4120
▁map	-4121
▁mib	-4122
▁nae	-4123
▁nal	-4124
▁nay	-4125
▁nof	-4126
▁oha	-4127
▁olo	-4128
▁pan	-4129
▁pel	-4130
▁pit	-4131
▁reb	-4132
▁roh	-4133
▁sat	-4134
▁sio	-4135
▁sol	-4136
▁sud	-4137
▁tel	-4138
▁tem	-4139
▁tol	-4140
▁tov	-4141
▁zoé	-4142
adily	-4143
afagn	-4144
ahaiv	-4145
ahary	-4146
aheko	-4147
aigne	-4148
akady	-4149
akato	-4150
amagn	-4151
amaha	-4152
amboh	-4153
amehe	-4154
amere	-4155
ampig	-4156
ampip	-4157
andao	-4158
andol	-4159
angov	-4160
anisa	-4161
anoko	-4162
arata	-4163
arets	-4164
arinj	-4165
ataoe	-4166
atasy	-4167
atsar	-4168
azana	-4169
azoto	-4170
borin	-4171
dradr	-4172
ehake	-4173
elaze	-4174
eleke	-4175
eloma	-4176
enaho	-4177
endio	-4178
fanti	-4179
hakeo	-4180
hatae	-4181
ihehe	-4182
ikazo	-4183
ilahy	-4184
ilike	-4185
iling	-4186
illet	-4187
imboe	-4188
inamb	-4189
iraty	-4190
isoae	-4191
itapo	-4192
kagne	-4193
mahaf	-4194
mahav	-4195
manga	-4196
monja	-4197
ndrae	-4198
ntane	-4199
ohara	-4200
ologn	-4201
oloke	-4202
omaka	-4203
ombat	-4204
omben	-4205
omisy	-4206
ompoe	-4207
onisy	-4208
onoeo	-4209
orihe	-4210
oseph	-4211
otogn	-4212
oveko	-4213
raoke	-4214
rehaf	-4215
rejeo	-4216
tragn	-4217
trako	-4218
vendr	-4219
vente	-4220
▁1959	-4221
▁2004	-4222
▁aefe	-4223
▁afoe	-4224
▁aihe	-4225
▁alah	-4226
▁alak	-4227
▁ampe	-4228
▁anad	-4229
▁anov	-4230
▁aria	-4231
▁asia	-4232
▁atie	-4233
▁azei	-4234
▁azoe	-4235
▁beie	-4236
▁croi	-4237
▁date	-4238
▁diso	-4239
▁efee	-4240
▁embe	-4241
▁enen	-4242
▁fant	-4243
▁fare	-4244
▁feng	-4245
▁fere	-4246
▁fils	-4247
▁fita	-4248
▁folo	-4249
▁hame	-4250
▁hasa	-4251
▁hoan	-4252
▁ingo	-4253
▁itoa	-4254
▁juin	-4255
▁kare	-4256
▁kids	-4257
▁lera	-4258
▁lioe	-4259
▁loto	-4260
▁mano	-4261
▁mbao	-4262
▁mesa	-4263
▁mido	-4264
▁mika	-4265
▁mira	-4266
▁misi	-4267
▁mita	-4268
▁moli	-4269
▁moro	-4270
▁mpik	-4271
▁mpin	-4272
▁nahe	-4273
▁neng	-4274
▁nian	-4275
▁niat	-4276
▁niro	-4277
▁nita	-4278
▁oire	-4279
▁safo	-4280
▁saka	-4281
▁sala	-4282
▁save	-4283
▁sita	-4284
▁toly	-4285
▁toro	-4286
▁toto	-4287
▁tsap	-4288
▁tsep	-4289
▁vahe	-4290
▁vaki	-4291
▁vari	-4292
▁varo	-4293
▁veta	-4294
▁voao	-4295
▁voav	-4296
▁vosy	-4297
▁vélo	-4298
▁zoro	-4299
afikey	-4300
ahetse	-4301
aladia	-4302
amahay	-4303
ambolo	-4304
ambone	-4305
ampian	-4306
ampoke	-4307
andray	-4308
andrim	-4309
androh	-4310
angote	-4311
antign	-4312
arigne	-4313
atorae	-4314
atseha	-4315
avakeo	-4316
avatse	-4317
azavin	-4318
azegne	-4319
barimo	-4320
behara	-4321
bélier	-4322
cancer	-4323
delira	-4324
dition	-4325
etraha	-4326
etsake	-4327
etsazo	-4328
fitera	-4329
iditse	-4330
ifatse	-4331
ifitse	-4332
ifotsy	-4333
ignaze	-4334
ihagne	-4335
ihoton	-4336
ilongo	-4337
imasay	-4338
imbasi	-4339
indraf	-4340
itohit	-4341
itraze	-4342
itsake	-4343
itsena	-4344
itsike	-4345
itsinj	-4346
ivagne	-4347
ivotse	-4348
kolake	-4349
konkao	-4350
mahery	-4351
manank	-4352
masika	-4353
najaja	-4354
nalaza	-4355
noagne	-4356
ognosa	-4357
ohatae	-4358
okatra	-4359
okenay	-4360
okotsy	-4361
oroako	-4362
otegna	-4363
ovetse	-4364
ovizae	-4365
roinde	-4366
salama	-4367
siegne	-4368
tamaro	-4369
teagne	-4370
▁abeoe	-4371
▁adalo	-4372
▁amanj	-4373
▁amban	-4374
▁ambeo	-4375
▁amono	-4376
▁ampit	-4377
▁anaov	-4378
▁anefa	-4379
▁anovo	-4380
▁aradr	-4381
▁atero	-4382
▁atond	-4383
▁avaha	-4384
▁beval	-4385
▁fahal	-4386
▁falay	-4387
▁fanja	-4388
▁fidir	-4389
▁finga	-4390
▁fofoe	-4391
▁golao	-4392
▁hajae	-4393
▁halae	-4394
▁hamaf	-4395
▁hezao	-4396
▁ikama	-4397
▁imaro	-4398
▁ipali	-4399
▁itsol	-4400
▁lahie	-4401
▁laven	-4402
▁livre	-4403
▁mahar	-4404
▁malio	-4405
▁mampi	-4406
▁maray	-4407
▁matoy	-4408
▁miola	-4409
▁mpita	-4410
▁naham	-4411
▁nasaf	-4412
▁nenga	-4413
▁nialy	-4414
▁niand	-4415
▁niaro	-4416
▁nirof	-4417
▁nisam	-4418
▁nitro	-4419
▁omale	-4420
▁ombia	-4421
▁peabo	-4422
▁pikey	-4423
▁pinay	-4424
▁pygmé	-4425
▁raese	-4426
▁ravee	-4427
▁reman	-4428
▁renel	-4429
▁resel	-4430
▁ringa	-4431
▁sahie	-4432
▁sairy	-4433
▁sitra	-4434
▁sotso	-4435
▁tahie	-4436
▁talil	-4437
▁taloh	-4438
▁tambe	-4439
▁tatse	-4440
▁tegne	-4441
▁tendr	-4442
▁tezay	-4443
▁tilay	-4444
▁tokie	-4445
▁tsena	-4446
▁tsifa	-4447
▁valee	-4448
▁vaovy	-4449
▁varav	-4450
▁viloe	-4451
▁vilon	-4452
▁voaey	-4453
▁volae	-4454
▁vonov	-4455
▁zatse	-4456
ahasade	-4457
ahasady	-4458
ahiniko	-4459
akabaly	-4460
akaloko	-4461
akanake	-4462
alahelo	-4463
aleagne	-4464
ambatre	-4465
ambegne	-4466
anagnao	-4467
andrema	-4468
andrene	-4469
andrese	-4470
antagne	-4471
aonigne	-4472
arakahy	-4473
aramaso	-4474
aroharo	-4475
atobory	-4476
atsikar	-4477
aylovae	-4478
beybeha	-4479
desegne	-4480
etalake	-4481
etrahae	-4482
felagne	-4483
herenah	-4484
iasagne	-4485
ikirike	-4486
ilindro	-4487
indrene	-4488
masigne	-4489
ndroaza	-4490
niarake	-4491
njeteie	-4492
okoloko	-4493
okolony	-4494
olotsei	-4495
ombandr	-4496
ongogne	-4497
ongotra	-4498
ontagne	-4499
ontogne	-4500
orikaze	-4501
otrotro	-4502
razagne	-4503
vavegne	-4504
▁agnaty	-4505
▁ahavia	-4506
▁ahitae	-4507
▁ajajao	-4508
▁alohao	-4509
▁ambaly	-4510
▁ambena	-4511
▁ampoli	-4512
▁anakoy	-4513
▁androi	-4514
▁atsimo	-4515
▁avaoie	-4516
▁baraka	-4517
▁bezoro	-4518
▁boroza	-4519
▁enogne	-4520
▁eynagn	-4521
▁fagnar	-4522
▁fagnit	-4523
▁fanovo	-4524
▁fikanj	-4525
▁fitiav	-4526
▁hahare	-4527
▁hahazo	-4528
▁hamaro	-4529
▁hampip	-4530
▁hanane	-4531
▁hasave	-4532
▁hifagn	-4533
▁hifaly	-4534
▁hifand	-4535
▁hijobo	-4536
▁hisara	-4537
▁honoeo	-4538
▁iabike	-4539
▁indese	-4540
▁indroe	-4541
▁izahay	-4542
▁joseph	-4543
▁kapila	-4544
▁kinama	-4545
▁kirava	-4546
▁kitapo	-4547
▁kolahe	-4548
▁komine	-4549
▁lakara	-4550
▁lietse	-4551
▁lineta	-4552
▁lohahe	-4553
▁lovanj	-4554
▁magnin	-4555
▁mahaly	-4556
▁malaso	-4557
▁maleme	-4558
▁mamaky	-4559
▁manant	-4560
▁maroie	-4561
▁martin	-4562
▁mazava	-4563
▁mifily	-4564
▁mihaja	-4565
▁minono	-4566
▁mpanao	-4567
▁nagnak	-4568
▁nahery	-4569
▁nanake	-4570
▁nasale	-4571
▁neizao	-4572
▁niavia	-4573
▁nifank	-4574
▁nifehe	-4575
▁nijoko	-4576
▁nilats	-4577
▁nipoke	-4578
▁nipoli	-4579
▁nipoly	-4580
▁nisolo	-4581
▁paliae	-4582
▁peuple	-4583
▁pisake	-4584
▁piteza	-4585
▁rambop	-4586
▁rehako	-4587
▁remano	-4588
▁rinoae	-4589
▁roazae	-4590
▁sabaka	-4591
▁sandre	-4592
▁sareke	-4593
▁sikily	-4594
▁simbao	-4595
▁solike	-4596
▁soroke	-4597
▁tagnal	-4598
▁tampae	-4599
▁tandre	-4600
▁tantar	-4601
▁teteke	-4602
▁tetsir	-4603
▁tevaha	-4604
▁tinoka	-4605
▁tinoro	-4606
▁titike	-4607
▁tomboe	-4608
▁tsaroa	-4609
▁vaovao	-4610
▁vatavo	-4611
▁vavony	-4612
▁voatse	-4613
▁voroke	-4614
afagnahy	-4615
alezagne	-4616
ampeagne	-4617
ampikama	-4618
andraike	-4619
andriank	-4620
andromba	-4621
angovang	-4622
anovagne	-4623
aragnaze	-4624
arinjary	-4625
asombola	-4626
atoamboh	-4627
dageagne	-4628
dradrake	-4629
endrenee	-4630
etezagne	-4631
indragne	-4632
isarotse	-4633
itraboio	-4634
ivilogne	-4635
kareagne	-4636
mafaitse	-4637
ongoagne	-4638
roaragne	-4639
tagnogne	-4640
taolagne	-4641
▁agnarao	-4642
▁agnisae	-4643
▁ahandro	-4644
▁alaegne	-4645
▁alimiza	-4646
▁ampande	-4647
▁anagnae	-4648
▁andavan	-4649
▁andriry	-4650
▁anoveko	-4651
▁antsena	-4652
▁atalili	-4653
▁dadabey	-4654
▁fahavia	-4655
▁famotsy	-4656
▁fampise	-4657
▁fohigne	-4658
▁fototse	-4659
▁hagnali	-4660
▁hagnome	-4661
▁hambole	-4662
▁hasairy	-4663
▁hateako	-4664
▁henteae	-4665
▁hiboaha	-4666
▁hoetika	-4667
▁horehaf	-4668
▁iandroy	-4669
▁juillet	-4670
▁kamagne	-4671
▁kiborin	-4672
▁kiraike	-4673
▁labiera	-4674
▁lakagne	-4675
▁lavabey	-4676
▁losotse	-4677
▁magnaja	-4678
▁magnary	-4679
▁mahakam	-4680
▁mandako	-4681
▁mandefa	-4682
▁mandoly	-4683
▁mandray	-4684
▁manogno	-4685
▁mazotoa	-4686
▁mihegne	-4687
▁mipoake	-4688
▁mirotse	-4689
▁mpamere	-4690
▁mpikamb	-4691
▁nahataf	-4692
▁nametse	-4693
▁namonje	-4694
▁nampagn	-4695
▁nandaty	-4696
▁netegne	-4697
▁nitonoi	-4698
▁nivitae	-4699
▁ntanose	-4700
▁oiregne	-4701
▁sakagne	-4702
▁salakao	-4703
▁satroke	-4704
▁satsoke	-4705
▁savatse	-4706
▁simbasi	-4707
▁tahagne	-4708
▁tahigne	-4709
▁tampake	-4710
▁tanjoko	-4711
▁tarirae	-4712
▁toetrae	-4713
▁tokampo	-4714
▁tragnoh	-4715
▁vinanto	-4716
▁voatery	-4717
▁vokatse	-4718
agnanagne	-4719
agnaragne	-4720
alahamaly	-4721
alatahake	-4722
amafeagne	-4723
amahakama	-4724
ambolagne	-4725
amborogne	-4726
antignana	-4727
aretsagne	-4728
asitragne	-4729
azavintsy	-4730
ilianagne	-4731
inagnombe	-4732
itohitohy	-4733
ombolagne	-4734
onangatse	-4735
rafihoton	-4736
roindefon	-4737
tsimanank	-4738
▁afahagne	-4739
▁afangaro	-4740
▁agnombeo	-4741
▁alalagne	-4742
▁ambahiny	-4743
▁ambanemb	-4744
▁ambiasay	-4745
▁anakapel	-4746
▁andevoey	-4747
▁androani	-4748
▁ankamena	-4749
▁anoroako	-4750
▁antanose	-4751
▁asombola	-4752
▁baralahy	-4753
▁bebarimo	-4754
▁culturel	-4755
▁dokotera	-4756
▁enendahy	-4757
▁fagnohar	-4758
▁famasake	-4759
▁famonoae	-4760
▁fangitse	-4761
▁fatratre	-4762
▁fatsatre	-4763
▁fihainoe	-4764
▁gorogoro	-4765
▁haliegne	-4766
▁hatalili	-4767
▁ifognosa	-4768
▁ipaiagne	-4769
▁ipetraha	-4770
▁ipoliako	-4771
▁iravahae	-4772
▁itovizae	-4773
▁katsafae	-4774
▁korohoke	-4775
▁lahilahi	-4776
▁lalagney	-4777
▁madineke	-4778
▁malaigne	-4779
▁manapake	-4780
▁manintsy	-4781
▁masiogne	-4782
▁megnatse	-4783
▁mianatre	-4784
▁misaotre	-4785
▁mitondra	-4786
▁nagnenga	-4787
▁nahavazo	-4788
▁nahazoae	-4789
▁nalefako	-4790
▁namatoke	-4791
▁namelaze	-4792
▁navotsoe	-4793
▁nifamehe	-4794
▁nihalava	-4795
▁nomeagne	-4796
▁ntandroy	-4797
▁olombelo	-4798
▁paliavee	-4799
▁ravenara	-4800
▁sarimboe	-4801
▁sorogney	-4802
▁taliliko	-4803
▁tampetse	-4804
▁tanakafe	-4805
▁tanambey	-4806
▁taonjato	-4807
▁taratasy	-4808
▁tekonkao	-4809
▁tendreke	-4810
▁teradahy	-4811
▁tinalily	-4812
▁tsikiake	-4813
▁vazimbao	-4814
▁videogne	-4815
▁vitagney	-4816
▁vognogne	-4817
▁vohidava	-4818
▁vohitseo	-4819
▁volagney	-4820
▁vonjegne	-4821
▁votsotse	-4822
agnaretane	-4823
ampigaogne	-4824
marandrano	-4825
nkazomanga	-4826
▁agnatseha	-4827
▁agnohatre	-4828
▁ahandrefa	-4829
▁alakamare	-4830
▁amandrene	-4831
▁ambalibey	-4832
▁ambinagne	-4833
▁ambolegne	-4834
▁ambosareo	-4835
▁amonoagne	-4836
▁ampanjaka	-4837
▁ampelasoa	-4838
▁ampitsinj	-4839
▁anadahiko	-4840
▁androaeko	-4841
▁ankamaroa	-4842
▁antamboho	-4843
▁antsoegne	-4844
▁antsovela	-4845
▁arandrano	-4846
▁atikagneo	-4847
▁fagnohara	-4848
▁fahaiagne	-4849
▁fahotagne	-4850
▁farananao	-4851
▁fiagnetsy	-4852
▁finomegne	-4853
▁fitambara	-4854
▁fizaragne	-4855
▁hagnafake	-4856
▁hagnavelo	-4857
▁halevegne	-4858
▁hangatake	-4859
▁henteagne	-4860
▁hijanogne	-4861
▁holitsena	-4862
▁iagnombey	-4863
▁indesagne	-4864
▁ipetrahae	-4865
▁karembola	-4866
▁lakolakoe	-4867
▁magnadily	-4868
▁mametrake	-4869
▁mamosetse	-4870
▁mampalaza	-4871
▁mandineke	-4872
▁manokitse	-4873
▁manontolo	-4874
▁manoratse	-4875
▁mipartage	-4876
▁mipetraka	-4877
▁mitagnaze	-4878
▁mivarigne	-4879
▁mpagnariv	-4880
▁nagnafake	-4881
▁nagnorike	-4882
▁nahatsapa	-4883
▁natahotse	-4884
▁natokagne	-4885
▁niherenah	-4886
▁nikoligne	-4887
▁nirazagne	-4888
▁nirofigne	-4889
▁nisaontsi	-4890
▁nisitogne	-4891
▁ontandroy	-4892
▁razantika	-4893
▁robohegne	-4894
▁siognagne	-4895
▁tanantsoa	-4896
▁tigneagne	-4897
▁toratorae	-4898
▁tsikolake	-4899
▁tsimahaiv	-4900
▁tsivazaho	-4901
▁tsokolony	-4902
▁varavagna	-4903
▁volovetae	-4904
ahafohineko	-4905
aligneregne	-4906
andriamiroh	-4907
atsikaritse	-4908
beybehabobo	-4909
tamaroaloke	-4910
▁agnalimizà	-4911
▁ambanevoha	-4912
▁antanagney	-4913
▁antevondro	-4914
▁antsampagn	-4915
▁bevalamoka	-4916
▁fagnajagne	-4917
▁fahafohina	-4918
▁fanambalia	-4919
▁fanopoagne	-4920
▁fiarahagne	-4921
▁hitaylovae	-4922
▁kadradrake	-4923
▁magnatseke	-4924
▁magneragne	-4925
▁mampinogne	-4926
▁manahigney	-4927
▁manaranake	-4928
▁mandriogne	-4929
▁mifanimbaz	-4930
▁minondrano	-4931
▁mitsinjoke	-4932
▁nagnambara	-4933
▁nahamasake	-4934
▁nahavilasy	-4935
▁namolavola	-4936
▁nampetrake	-4937
▁nampidiree	-4938
▁nandevegne	-4939
▁nangalagne	-4940
▁nataondrae	-4941
▁nifakahazo	-4942
▁nijokojoko	-4943
▁nipetrahae	-4944
▁nitrodrano	-4945
▁peabolagne	-4946
▁ragnandria	-4947
▁revatobory	-4948
▁soafagnahy	-4949
▁tatserejeo	-4950
▁tiandroany	-4951
▁tomboarivo	-4952
▁tragnovaho	-4953
▁tsirangote	-4954
▁vazohoegne	-4955
▁zokenajaja	-4956
agnazemasika	-4957
andrianomben	-4958
fantiolotsei	-4959
olognandraha	-4960
▁agnarakatae	-4961
▁ambalimasay	-4962
▁ambaneandro	-4963
▁andrimanara	-4964
▁angatahagne	-4965
▁embokaoliko	-4966
▁famataragne	-4967
▁fanompoagne	-4968
▁fanovagnaze	-4969
▁fombandraza	-4970
▁hagnakabaly	-4971
▁hahafohigne	-4972
▁hasaveregna	-4973
▁hazomangaon	-4974
▁hitandregne	-4975
▁ipaliavagne	-4976
▁itsolohagne	-4977
▁lambafirake	-4978
▁magnotrotro	-4979
▁mahavelogne	-4980
▁mampianatse	-4981
▁mampisarake	-4982
▁mandrafitse	-4983
▁miantignana	-4984
▁mitrangagne	-4985
▁mpikambagne	-4986
▁oiregnandro	-4987
▁remanasatse	-4988
▁reselahatse	-4989
▁temagnindra	-4990
▁vagnombagno	-4991
▁vilonandroy	-4992
ikirikebehara	-4993
▁agnaretsagne	-4994
▁ankavoriagne	-4995
▁fagnazavagne	-4996
▁fahasoavagne	-4997
▁fianakaviana	-4998
▁fiheregnagne	-4999
▁filongoagney	-5000
▁hameregnagne	-5001
▁hangatahagne	-5002
▁indonezieneo	-5003
▁itandremagne	-5004
▁lohamahakama	-5005
▁mahasitragne	-5006
▁malazavintsy	-5007
▁nahafantatse	-5008
▁ranomasigney	-5009
▁voalohaenaho	-5010
▁vonovonoegne	-5011
androandriagne	-5012
atoambohitrabo	-5013
tsimanankaraty	-5014
▁afondrasiloke	-5015
▁agnamboaragne	-5016
▁agnombesatsia	-5017
▁ambohitraboio	-5018
▁fagnamafeagne	-5019
▁fampisehoagne	-5020
▁fandevegnagne	-5021
▁fiaignagnetsy	-5022
▁kiborinandrim	-5023
▁lovanjavembia	-5024
▁mahafinaritre	-5025
▁maharofanigne	-5026
▁mangalatahake	-5027
▁nampandesegne	-5028
▁niarakagnombe	-5029
▁niherenahigne	-5030
▁tsikitohitohy	-5031
▁variombolagne	-5032
mafaitseetalake	-5033
▁agnaramborogne	-5034
▁ahafohinantika	-5035
▁andavanandroke	-5036
▁fanjanahataney	-5037
▁hanorognagnaze	-5038
▁nahatsikaritse	-5039
▁nanampakevetse	-5040
▁tetsiavotagneo	-5041
roindefoniterake	-5042
▁ampitsinjahegne	-5043
▁tagnafondrakady	-5044
▁tagnafotsifaleo	-5045
▁tagnafotsifaley	-5046
▁tsimahaivelogne	-5047
199	-5048
819	-5049
_19	-5050
bij	-5051
mij	-5052
nig	-5053
odi	-5054
umé	-5055
▁84	-5056
1960	-5057
4986	-5058
7819	-5059
adeh	-5060
aony	-5061
baib	-5062
bert	-5063
dame	-5064
diha	-5065
fotr	-5066
ibil	-5067
irib	-5068
jejo	-5069
mido	-5070
mite	-5071
nsns	-5072
odov	-5073
odry	-5074
papa	-5075
phin	-5076
port	-5077
vavé	-5078
zere	-5079
▁152	-5080
▁153	-5081
▁176	-5082
▁228	-5083
▁235	-5084
▁317	-5085
▁583	-5086
▁cré	-5087
▁des	-5088
▁mey	-5089
▁ofi	-5090
▁ota	-5091
▁poz	-5092
abozo	-5093
adalo	-5094
aehae	-5095
aembo	-5096
aholi	-5097
anees	-5098
avaoz	-5099
haaa	-5100
maso	-5101
miha	-5102
otep	-5103
tsin	-5104
amaso	-5105
aomeo	-5106
bakit	-5107
elehe	-5108
entae	-5109
ereko	-5110
etani	-5111
ezake	-5112
finga	-5113
gnafo	-5114
homas	-5115
ilint	-5116
imeau	-5117
imoni	-5118
intia	-5119
intso	-5120
inzoe	-5121
iteny	-5122
kafao	-5123
kafoe	-5124
kekeo	-5125
letao	-5126
maine	-5127
mipay	-5128
mitom	-5129
namak	-5130
nigoa	-5131
odake	-5132
oreke	-5133
osafo	-5134
ranoi	-5135
senge	-5136
sorae	-5137
trict	-5138
troke	-5139
tsake	-5140
▁1139	-5141
▁1943	-5142
▁1945	-5143
▁1960	-5144
▁1983	-5145
▁2018	-5146
▁aboa	-5147
▁adal	-5148
▁aheo	-5149
▁apet	-5150
▁asio	-5151
▁ateo	-5152
▁bots	-5153
▁cein	-5154
▁fort	-5155
▁ivor	-5156
▁korà	-5157
▁leng	-5158
▁liay	-5159
▁mboh	-5160
▁naod	-5161
▁niez	-5162
▁numé	-5163
▁otap	-5164
▁ovao	-5165
▁ovoa	-5166
▁papa	-5167
▁rada	-5168
▁rami	-5169
▁riki	-5170
▁rine	-5171
▁sefo	-5172
▁sipa	-5173
▁tabe	-5174
▁taie	-5175
▁tapo	-5176
▁valv	-5177
aeeake	-5178
afampo	-5179
afihee	-5180
agnaby	-5181
ahangy	-5182
ahatae	-5183
ahipay	-5184
alavao	-5185
amahav	-5186
ambopo	-5187
andeta	-5188
ankile	-5189
anogno	-5190
arigna	-5191
avalao	-5192
avelom	-5193
azatal	-5194
baomeo	-5195
baraka	-5196
borobo	-5197
entili	-5198
eramif	-5199
002	-5200
cré	-5201
ope	-5202
▁62	-5203
afab	-5204
cope	-5205
nits	-5206
bodae	-5207
fakav	-5208
irehe	-5209
ivola	-5210
mpoly	-5211
scope	-5212
▁asae	-5213
▁hetr	-5214
▁hiav	-5215
▁irie	-5216
▁kamo	-5217
▁kopa	-5218
aenits	-5219
ahalah	-5220
angosa	-5221
atraze	-5222
bitike	-5223
enofoe	-5224
erseau	-5225
etsika	-5226
hetseo	-5227
iagnao	-5228
iditre	-5229
iegnei	-5230
iereko	-5231
ihyman	-5232
ijalea	-5233
ijitse	-5234
ikamao	-5235
ilahie	-5236
indahy	-5237
indoha	-5238
isanny	-5239
isitra	-5240
itampo	-5241
itraka	-5242
izaoza	-5243
joloke	-5244
keleke	-5245
kinika	-5246
kopoke	-5247
mamany	-5248
mihaza	-5249
nahery	-5250
njamin	-5251
njanae	-5252
odogne	-5253
omanan	-5254
ombami	-5255
omorom	-5256
onakeo	-5257
onjara	-5258
onjato	-5259
oringa	-5260
otagna	-5261
otepot	-5262
otsila	-5263
otsose	-5264
pitake	-5265
raotse	-5266
ration	-5267
ropake	-5268
somare	-5269
taogne	-5270
toetra	-5271
▁afaka	-5272
▁ahere	-5273
▁anadr	-5274
▁ankoe	-5275
▁anoka	-5276
▁arahe	-5277
▁asaor	-5278
▁atoty	-5279
▁baged	-5280
▁behar	-5281
▁colon	-5282
▁ebelo	-5283
▁elanj	-5284
▁entei	-5285
▁fanap	-5286
▁filah	-5287
▁finam	-5288
▁fisit	-5289
▁fitoi	-5290
▁folev	-5291
▁godry	-5292
▁golay	-5293
▁hajao	-5294
▁harea	-5295
▁herit	-5296
▁hihal	-5297
▁hilaf	-5298
▁hipol	-5299
biz	-5300
urn	-5301
▁40	-5302
▁4_	-5303
bize	-5304
ment	-5305
urte	-5306
▁iho	-5307
▁ivo	-5308
akadr	-5309
fahat	-5310
inash	-5311
lombo	-5312
ombor	-5313
urnal	-5314
▁1700	-5315
▁isor	-5316
▁kile	-5317
▁sogn	-5318
anilay	-5319
antimo	-5320
azàgne	-5321
ehegne	-5322
ginash	-5323
sement	-5324
tinohy	-5325
▁fohin	-5326
▁herim	-5327
▁hirae	-5328
▁hoaia	-5329
▁hoebi	-5330
▁holyv	-5331
▁ifale	-5332
▁ihosy	-5333
▁inoae	-5334
▁isamp	-5335
▁isant	-5336
▁jeune	-5337
▁kilat	-5338
▁kinoe	-5339
▁kolot	-5340
▁landy	-5341
▁laoke	-5342
▁laroe	-5343
▁lehoe	-5344
▁lende	-5345
▁lolor	-5346
▁lombo	-5347
▁mbama	-5348
▁mbamb	-5349
▁menay	-5350
▁miera	-5351
▁milay	-5352
▁miram	-5353
▁mpits	-5354
▁napea	-5355
▁napoa	-5356
▁navol	-5357
▁ndati	-5358
▁nifef	-5359
▁niola	-5360
▁noire	-5361
▁nàreo	-5362
▁ofisi	-5363
▁orano	-5364
▁pibil	-5365
▁rakot	-5366
▁sahis	-5367
▁sisie	-5368
▁sisit	-5369
▁tantr	-5370
▁taton	-5371
▁tedod	-5372
▁tezae	-5373
▁tihoe	-5374
▁tomet	-5375
▁tonda	-5376
▁tsiva	-5377
▁tsodr	-5378
▁vahao	-5379
▁valoh	-5380
▁vitae	-5381
▁votso	-5382
▁vozoe	-5383
▁zaiko	-5384
▁zarao	-5385
aembozo	-5386
ahalehe	-5387
ahilahy	-5388
alahazo	-5389
alatsey	-5390
alijady	-5391
ambolap	-5392
aminako	-5393
aminany	-5394
ampemba	-5395
anamena	-5396
anataly	-5397
andoloy	-5398
andrife	-5399
did	-5400
▁09	-5401
amid	-5402
cemb	-5403
kame	-5404
kily	-5405
olog	-5406
olop	-5407
▁hev	-5408
▁iri	-5409
akalo	-5410
fiang	-5411
iaeie	-5412
olily	-5413
▁dino	-5414
▁fogn	-5415
▁ikam	-5416
▁kere	-5417
▁moto	-5418
▁nino	-5419
▁tafa	-5420
arakam	-5421
atreke	-5422
cembra	-5423
idiree	-5424
irakey	-5425
ologie	-5426
ontika	-5427
ovolop	-5428
▁havia	-5429
▁ionam	-5430
▁ipoha	-5431
▁misor	-5432
▁ranon	-5433
alevamp	-5434
ambaike	-5435
anirano	-5436
anisako	-5437
anokake	-5438
aovagne	-5439
apabozo	-5440
apetake	-5441
arandra	-5442
arazara	-5443
arignae	-5444
arokaro	-5445
arotroe	-5446
atakaze	-5447
atanana	-5448
atendre	-5449
avaozet	-5450
avinono	-5451
avohavo	-5452
bijagne	-5453
bolagne	-5454
dododoh	-5455
dronono	-5456
elakobo	-5457
erakazo	-5458
ermaine	-5459
faharoe	-5460
hatrake	-5461
ianaree	-5462
ikifike	-5463
imasake	-5464
imerina	-5465
indrozo	-5466
ingitse	-5467
iribiry	-5468
itokave	-5469
janvier	-5470
kafagne	-5471
kamahia	-5472
lefogne	-5473
magnale	-5474
magnary	-5475
mandeha	-5476
nandese	-5477
niforae	-5478
olognee	-5479
olotake	-5480
ompogne	-5481
onagneo	-5482
ondolol	-5483
onimoni	-5484
ontsira	-5485
ontsiry	-5486
oratako	-5487
orifike	-5488
ovambra	-5489
siranoi	-5490
soragne	-5491
sotraze	-5492
tsivere	-5493
vendran	-5494
vohagne	-5495
volagne	-5496
vomanan	-5497
▁adalov	-5498
▁ajarey	-5499
ai	-5500
imp	-5501
▁55	-5502
etsi	-5503
heje	-5504
ikot	-5505
imbe	-5506
ohoo	-5507
rako	-5508
▁kit	-5509
atate	-5510
baiko	-5511
iandr	-5512
okisa	-5513
▁aiko	-5514
▁alyt	-5515
▁hiko	-5516
▁mapi	-5517
▁namb	-5518
▁ravo	-5519
▁vant	-5520
▁vatr	-5521
akeyko	-5522
akizay	-5523
ampira	-5524
apotsy	-5525
avanja	-5526
baezao	-5527
itseie	-5528
▁hohie	-5529
▁malot	-5530
▁nahit	-5531
▁nisar	-5532
▁vitsy	-5533
arezere	-5534
etrahao	-5535
iandrah	-5536
rahagne	-5537
▁ambeko	-5538
▁anagna	-5539
▁andefe	-5540
▁ankili	-5541
▁apetra	-5542
▁arapit	-5543
▁aretee	-5544
▁arofoy	-5545
▁asaram	-5546
▁asoroe	-5547
▁azeran	-5548
▁beibey	-5549
▁bekily	-5550
▁bevoka	-5551
▁crédit	-5552
▁falaim	-5553
▁faliko	-5554
▁fanako	-5555
▁fandia	-5556
▁fandre	-5557
▁fasiae	-5558
▁fatika	-5559
▁fidira	-5560
▁filoha	-5561
▁finatr	-5562
▁fiotso	-5563
▁fisiao	-5564
▁fotoae	-5565
▁gimeau	-5566
▁haehae	-5567
▁hahita	-5568
▁haihay	-5569
▁hainny	-5570
▁hakofa	-5571
▁halats	-5572
▁hampan	-5573
▁handeh	-5574
▁handol	-5575
▁hataoo	-5576
▁havili	-5577
▁heurte	-5578
▁hijera	-5579
▁hisolo	-5580
▁hitako	-5581
▁hohane	-5582
▁imaroa	-5583
▁indray	-5584
▁iomisy	-5585
▁isaont	-5586
▁itegna	-5587
▁karaza	-5588
▁kedede	-5589
▁kindra	-5590
▁koliko	-5591
▁laleke	-5592
▁landyf	-5593
▁lavake	-5594
▁loatre	-5595
▁lomagn	-5596
▁lomaka	-5597
▁malaky	-5598
▁maloto	-5599
47	-5600
avi	-5601
ery	-5602
vel	-5603
▁er	-5604
▁fc	-5605
boha	-5606
ikey	-5607
mpol	-5608
oroh	-5609
sifa	-5610
varo	-5611
▁car	-5612
▁fen	-5613
▁hao	-5614
▁hoa	-5615
ilala	-5616
ilign	-5617
inaly	-5618
olign	-5619
zatse	-5620
▁anoa	-5621
▁atoa	-5622
▁inoa	-5623
▁lale	-5624
▁maty	-5625
▁momb	-5626
▁nidi	-5627
▁nimp	-5628
▁pile	-5629
apeake	-5630
fronti	-5631
imanga	-5632
indroe	-5633
iratse	-5634
oniavy	-5635
▁avaon	-5636
▁fahar	-5637
▁famar	-5638
▁laled	-5639
▁nivoa	-5640
▁vogne	-5641
araigne	-5642
namakia	-5643
ognagne	-5644
omilign	-5645
▁aolign	-5646
▁berano	-5647
▁ligney	-5648
▁mankas	-5649
▁manogn	-5650
▁mareke	-5651
▁masiko	-5652
▁matoky	-5653
▁menabe	-5654
▁merina	-5655
▁miamby	-5656
▁miarak	-5657
▁miatre	-5658
▁mifehe	-5659
▁mihane	-5660
▁mirefe	-5661
▁mitera	-5662
▁mohara	-5663
▁mombam	-5664
▁mpisol	-5665
▁nahita	-5666
▁nainae	-5667
▁nandri	-5668
▁nanogn	-5669
▁nanovy	-5670
▁napali	-5671
▁nasara	-5672
▁natoro	-5673
▁nibori	-5674
▁niempo	-5675
▁niheje	-5676
▁nilagn	-5677
▁nilany	-5678
▁nimpif	-5679
▁nipoha	-5680
▁nirefe	-5681
▁nirevo	-5682
▁nirova	-5683
▁niteza	-5684
▁nitohy	-5685
▁nitolo	-5686
▁normal	-5687
▁ombias	-5688
▁panama	-5689
▁rafoza	-5690
▁rahamb	-5691
▁ramiha	-5692
▁ravake	-5693
▁razako	-5694
▁renees	-5695
▁reneey	-5696
▁rereke	-5697
▁ronono	-5698
▁salale	-5699
afy	-5700
fiv	-5701
seh	-5702
tsa	-5703
▁oo	-5704
basy	-5705
heza	-5706
izae	-5707
orao	-5708
▁ovy	-5709
amang	-5710
andeh	-5711
arasy	-5712
atset	-5713
eloko	-5714
eteko	-5715
megne	-5716
olipo	-5717
sehon	-5718
▁ampi	-5719
▁fino	-5720
▁liao	-5721
▁lolo	-5722
▁myst	-5723
▁oaho	-5724
▁zara	-5725
aritra	-5726
auphin	-5727
avande	-5728
bokabo	-5729
dognae	-5730
feheza	-5731
pepake	-5732
seragn	-5733
▁adoko	-5734
▁ankiz	-5735
▁ezaho	-5736
▁ezaoo	-5737
▁hanen	-5738
amaigne	-5739
anahery	-5740
antetse	-5741
elomako	-5742
oramena	-5743
seragna	-5744
▁alakao	-5745
▁engako	-5746
▁ezaooo	-5747
▁gnereo	-5748
▁manara	-5749
▁mitono	-5750
▁mitsik	-5751
▁sambof	-5752
▁sampan	-5753
▁sasafa	-5754
▁soasoa	-5755
▁sorohe	-5756
▁tambee	-5757
▁tapake	-5758
▁tarira	-5759
▁tatane	-5760
▁tegnae	-5761
▁temang	-5762
▁tetsil	-5763
▁thomas	-5764
▁tinoky	-5765
▁tohiza	-5766
▁tompoe	-5767
▁tromba	-5768
▁tsakav	-5769
▁tsikao	-5770
▁tsikim	-5771
▁tsingy	-5772
▁valake	-5773
▁valver	-5774
▁varako	-5775
▁vasare	-5776
▁vazavo	-5777
▁veloma	-5778
▁vinoha	-5779
▁voanjo	-5780
▁vokabo	-5781
▁vonoee	-5782
▁voravy	-5783
▁zivako	-5784
▁zokeko	-5785
▁zoégne	-5786
adehanee	-5787
aenitsoa	-5788
agnafake	-5789
ahalahie	-5790
akeykole	-5791
ampoetse	-5792
andratse	-5793
andrigne	-5794
aneesita	-5795
angosako	-5796
anihyman	-5797
aontsiae	-5798
apahagne	-5799
azé	-5800
fot	-5801
oré	-5802
rot	-5803
yfa	-5804
▁ed	-5805
▁ep	-5806
▁gr	-5807
ateo	-5808
avor	-5809
ivae	-5810
ohaz	-5811
olom	-5812
orek	-5813
▁ahe	-5814
▁aty	-5815
▁eoh	-5816
▁kav	-5817
▁nij	-5818
agnaf	-5819
enagn	-5820
okely	-5821
omena	-5822
onoré	-5823
reyfa	-5824
▁anif	-5825
▁epoz	-5826
▁hioe	-5827
▁hoae	-5828
▁lang	-5829
▁niaz	-5830
▁nibe	-5831
▁nisi	-5832
▁niva	-5833
▁rere	-5834
▁tele	-5835
▁toka	-5836
ohazoy	-5837
▁afaho	-5838
▁agnen	-5839
▁epozy	-5840
▁grand	-5841
▁nanje	-5842
▁rerel	-5843
▁revey	-5844
▁vitao	-5845
ampokoy	-5846
arakose	-5847
iakatse	-5848
ndraeko	-5849
▁alogne	-5850
▁andron	-5851
▁eohoeo	-5852
▁hambop	-5853
▁hioeih	-5854
▁honoré	-5855
▁lalant	-5856
▁nanjea	-5857
▁niazoe	-5858
▁nihany	-5859
▁nivaie	-5860
aratanan	-5861
arokaroe	-5862
arovagne	-5863
atantara	-5864
atendreh	-5865
avelomae	-5866
bakiteny	-5867
entilisa	-5868
etenofoe	-5869
etimanga	-5870
fahatelo	-5871
fompogne	-5872
hitalili	-5873
idronono	-5874
ihevetse	-5875
inantara	-5876
iragnaze	-5877
isaontsy	-5878
ivarigna	-5879
jabajaba	-5880
mahafake	-5881
mandrare	-5882
manindri	-5883
misafiry	-5884
mitsitra	-5885
nanokake	-5886
nifindra	-5887
omanambo	-5888
onagnaze	-5889
ondraoke	-5890
onjeagne	-5891
oriagney	-5892
ororinga	-5893
otampoke	-5894
otsoboke	-5895
siaetika	-5896
sinokake	-5897
taokafao	-5898
tsodrano	-5899
▁52	-5900
aham	-5901
avoa	-5902
mana	-5903
oasy	-5904
▁000	-5905
▁hob	-5906
agnaz	-5907
akere	-5908
azako	-5909
azaza	-5910
bogne	-5911
irako	-5912
kelae	-5913
ororo	-5914
samam	-5915
teako	-5916
▁ahos	-5917
▁dihy	-5918
▁tesi	-5919
▁toko	-5920
agnate	-5921
ampita	-5922
andran	-5923
ovonoe	-5924
▁alike	-5925
▁anagn	-5926
▁antse	-5927
▁avaok	-5928
▁fotif	-5929
▁masoe	-5930
▁molym	-5931
▁rambo	-5932
▁trafo	-5933
▁zokee	-5934
ajalahy	-5935
asatsia	-5936
atragne	-5937
dovonoe	-5938
elahiko	-5939
ikarama	-5940
lagnela	-5941
▁akelae	-5942
▁antsev	-5943
▁hakere	-5944
▁hoboho	-5945
▁mamana	-5946
▁namany	-5947
▁vognoe	-5948
asoazaza	-5949
orobogne	-5950
ynandese	-5951
▁aakatse	-5952
▁agnampe	-5953
▁amaetea	-5954
▁amiireo	-5955
▁amitika	-5956
▁amizaon	-5957
▁andeseo	-5958
▁angalao	-5959
▁angatre	-5960
▁anjomba	-5961
▁aolitse	-5962
▁aosambe	-5963
▁apetaho	-5964
▁arofane	-5965
▁asarata	-5966
▁atehena	-5967
▁atoboke	-5968
▁babegne	-5969
▁bageday	-5970
▁behakeo	-5971
▁beharad	-5972
▁besavoa	-5973
▁betroke	-5974
▁borokao	-5975
▁dauphin	-5976
▁elanjao	-5977
▁engagne	-5978
▁ezambey	-5979
▁fahafah	-5980
▁fahafin	-5981
▁fahafoh	-5982
▁fahalal	-5983
▁faladia	-5984
▁fampiro	-5985
▁fangaly	-5986
▁faritre	-5987
▁fiaigna	-5988
▁fiaigne	-5989
▁fihetse	-5990
▁fijoroa	-5991
▁foiegne	-5992
▁fotoana	-5993
▁hagnova	-5994
▁hamafel	-5995
▁handika	-5996
▁handoza	-5997
▁hasaroe	-5998
▁hatrami	-5999
ut	-6000
iso	-6001
rae	-6002
uel	-6003
▁tu	-6004
dika	-6005
lamb	-6006
mila	-6007
mise	-6008
mosa	-6009
olok	-6010
sady	-6011
▁jaj	-6012
▁nar	-6013
▁pol	-6014
▁taz	-6015
▁van	-6016
agnen	-6017
aizay	-6018
imora	-6019
ituel	-6020
omasi	-6021
omesa	-6022
vitra	-6023
▁anka	-6024
▁avel	-6025
▁beko	-6026
▁giso	-6027
▁hamb	-6028
▁nane	-6029
▁nida	-6030
▁vare	-6031
arivos	-6032
miomba	-6033
misent	-6034
▁amboa	-6035
▁anose	-6036
▁hande	-6037
▁jajay	-6038
▁lahit	-6039
▁tsafo	-6040
antegna	-6041
irohake	-6042
misento	-6043
nomegne	-6044
oroagne	-6045
tezagne	-6046
▁avegne	-6047
▁faraty	-6048
▁hahery	-6049
▁ivigne	-6050
▁mahavo	-6051
▁manohy	-6052
▁mpahay	-6053
▁nidaba	-6054
▁ravemb	-6055
▁rituel	-6056
▁safary	-6057
▁teieam	-6058
49867819	-6059
eragnaze	-6060
omasiake	-6061
▁afaizay	-6062
▁handeta	-6063
▁hatsake	-6064
▁herimpo	-6065
▁hetseke	-6066
▁hiavaha	-6067
▁hitolom	-6068
▁hoerake	-6069
▁hoetimp	-6070
▁iandevo	-6071
▁iareoty	-6072
▁ikopoke	-6073
▁isoroha	-6074
▁ivondro	-6075
▁johnsns	-6076
▁journal	-6077
▁karazak	-6078
▁kitagne	-6079
▁laloasy	-6080
▁lambosy	-6081
▁latimer	-6082
▁lavenok	-6083
▁lehibey	-6084
▁lelekey	-6085
▁liereko	-6086
▁lilindr	-6087
▁litsake	-6088
▁lonakeo	-6089
▁lovodov	-6090
▁magnent	-6091
▁magnova	-6092
▁mahafoy	-6093
▁maintso	-6094
▁maintsy	-6095
▁mamaley	-6096
▁manahak	-6097
▁mandeta	-6098
▁marofor	-6099
30	-6100
34	-6101
97	-6102
gi	-6103
430	-6104
aoe	-6105
deb	-6106
poa	-6107
say	-6108
▁tà	-6109
alon	-6110
anam	-6111
jake	-6112
laha	-6113
omat	-6114
▁koh	-6115
▁naf	-6116
▁tet	-6117
▁tse	-6118
▁vot	-6119
alika	-6120
andrà	-6121
ateae	-6122
iasae	-6123
kaeyn	-6124
tsisy	-6125
▁asat	-6126
▁lent	-6127
▁reen	-6128
ihegne	-6129
kapaka	-6130
korake	-6131
volafe	-6132
▁eytsy	-6133
▁magna	-6134
▁niamb	-6135
▁tamae	-6136
alonake	-6137
ilaatao	-6138
▁ahyhit	-6139
▁anigne	-6140
▁fitamp	-6141
▁manake	-6142
▁mangar	-6143
▁mpanak	-6144
▁tsaboe	-6145
ahiragne	-6146
andragne	-6147
issement	-6148
omangate	-6149
▁ampagno	-6150
▁anjanae	-6151
▁hetrika	-6152
▁kahenie	-6153
▁mbohira	-6154
▁meregne	-6155
▁miezake	-6156
▁mifakav	-6157
▁mifanta	-6158
▁mikekeo	-6159
▁mimpoly	-6160
▁miodake	-6161
▁mipolia	-6162
▁miranga	-6163
▁mirenge	-6164
▁misaoke	-6165
▁mitsile	-6166
▁mitsomb	-6167
▁mpinday	-6168
▁nafatse	-6169
▁nagnova	-6170
▁nahafoe	-6171
▁nahajae	-6172
▁najogne	-6173
▁nalazae	-6174
▁nalevee	-6175
▁naleveo	-6176
▁nandala	-6177
▁nandalo	-6178
▁nangala	-6179
▁nanjaka	-6180
▁naodake	-6181
▁napalie	-6182
▁napipal	-6183
▁nasehon	-6184
▁ndroaza	-6185
▁nibogne	-6186
▁nihanee	-6187
▁nikamae	-6188
▁nikogne	-6189
▁nilefea	-6190
▁nindram	-6191
▁nipolot	-6192
▁niroake	-6193
▁nisangy	-6194
▁nisenge	-6195
▁nitanae	-6196
▁nitokam	-6197
▁nitsile	-6198
▁nizotro	-6199
04	-6200
55	-6201
120	-6202
fae	-6203
lam	-6204
tal	-6205
vin	-6206
▁of	-6207
ahit	-6208
ahoa	-6209
aloe	-6210
amit	-6211
iloe	-6212
irao	-6213
ohav	-6214
omen	-6215
saro	-6216
▁ame	-6217
▁kat	-6218
▁met	-6219
▁tay	-6220
▁tiv	-6221
▁tot	-6222
▁vag	-6223
▁zin	-6224
areae	-6225
ataho	-6226
iahoa	-6227
igner	-6228
piaro	-6229
roara	-6230
zaiko	-6231
▁2024	-6232
▁fane	-6233
▁iaeo	-6234
▁sava	-6235
▁birao	-6236
▁entee	-6237
▁fetse	-6238
▁hoeit	-6239
▁niony	-6240
▁teamb	-6241
▁vinda	-6242
▁volam	-6243
▁zarae	-6244
egnegne	-6245
izandro	-6246
▁avonje	-6247
▁hagnef	-6248
▁hasafo	-6249
▁nanala	-6250
▁nibaib	-6251
▁tsaran	-6252
▁vahoae	-6253
atahotse	-6254
vazoagne	-6255
▁faragne	-6256
▁firehaf	-6257
▁hihalav	-6258
▁hoiahoa	-6259
▁mahavoa	-6260
▁nifakaf	-6261
▁nizotso	-6262
▁nozogne	-6263
▁oampela	-6264
▁omeagne	-6265
▁omeigne	-6266
▁rafozae	-6267
▁rehekay	-6268
▁rekeito	-6269
▁remahaz	-6270
▁rivotse	-6271
▁romorom	-6272
▁salatse	-6273
▁sitrake	-6274
▁sokotsy	-6275
▁solikey	-6276
▁somonga	-6277
▁soratre	-6278
▁tagnako	-6279
▁tagnety	-6280
▁talenta	-6281
▁tamagne	-6282
▁tanjona	-6283
▁tarehey	-6284
▁tehahay	-6285
▁tehoeke	-6286
▁temahat	-6287
▁tevahav	-6288
▁tevatra	-6289
▁tiagneo	-6290
▁tifitse	-6291
▁tinogno	-6292
▁tognomb	-6293
▁tsasike	-6294
▁tsepahe	-6295
▁tsiente	-6296
▁tsimagn	-6297
▁tsivoro	-6298
▁tsodran	-6299
bl	-6300
dan	-6301
ilo	-6302
nje	-6303
oym	-6304
rao	-6305
ree	-6306
akeh	-6307
aleo	-6308
area	-6309
fang	-6310
gake	-6311
miko	-6312
omay	-6313
tabl	-6314
▁dab	-6315
▁eyi	-6316
▁ras	-6317
▁voz	-6318
areko	-6319
iiiii	-6320
omare	-6321
ongam	-6322
osora	-6323
▁fafa	-6324
▁peta	-6325
▁tano	-6326
afondr	-6327
arotso	-6328
isagne	-6329
itotsy	-6330
▁afehe	-6331
▁antim	-6332
▁ehake	-6333
▁fanae	-6334
▁hamak	-6335
▁hazov	-6336
▁lomay	-6337
▁manta	-6338
▁momba	-6339
▁nitoy	-6340
▁sport	-6341
▁tafia	-6342
▁talie	-6343
▁établ	-6344
afosafo	-6345
bodagne	-6346
nanjaka	-6347
onjogne	-6348
▁ajalah	-6349
▁ajogne	-6350
▁efatse	-6351
▁fonoke	-6352
▁namaki	-6353
▁nitiry	-6354
▁rambaz	-6355
▁vovoke	-6356
oheragne	-6357
▁abovelo	-6358
▁ambalae	-6359
▁aoregne	-6360
▁hetsika	-6361
▁hoebibi	-6362
▁lambako	-6363
▁mpiaray	-6364
▁mpitoky	-6365
▁teizaho	-6366
▁vahomba	-6367
▁vasareo	-6368
▁vasarey	-6369
▁vazohoe	-6370
▁veiegne	-6371
▁version	-6372
▁vifotsy	-6373
▁vintagn	-6374
▁vitikey	-6375
▁voazavo	-6376
▁volamen	-6377
▁volomav	-6378
▁vonoety	-6379
▁zafeafe	-6380
▁zahayty	-6381
agnaonaho	-6382
agnitatse	-6383
alatsangy	-6384
amegnatse	-6385
amirohake	-6386
ampihaino	-6387
andesagne	-6388
andovagne	-6389
angalatse	-6390
anganagne	-6391
aniterake	-6392
anjokatra	-6393
atranjake	-6394
atsimahay	-6395
ditionnel	-6396
ekegnatse	-6397
fotrandro	-6398
hazomanga	-6399
op	-6400
hol	-6401
oaj	-6402
sit	-6403
akoh	-6404
amae	-6405
erah	-6406
iste	-6407
tant	-6408
▁dun	-6409
▁goa	-6410
▁zeo	-6411
ahone	-6412
andry	-6413
angan	-6414
eloke	-6415
irisa	-6416
lambo	-6417
omomb	-6418
otene	-6419
sibey	-6420
zegne	-6421
▁hova	-6422
▁jaon	-6423
▁sale	-6424
▁sang	-6425
▁toke	-6426
ampoin	-6427
itegne	-6428
ohatao	-6429
oregne	-6430
▁aleve	-6431
▁amant	-6432
▁anare	-6433
▁saley	-6434
▁signe	-6435
▁tsits	-6436
iofagne	-6437
ondraza	-6438
orogney	-6439
osatsia	-6440
▁aefeko	-6441
▁azétsy	-6442
▁heloke	-6443
▁karate	-6444
▁magnaz	-6445
▁mahant	-6446
▁nazoto	-6447
▁satria	-6448
azataloh	-6449
▁hazavae	-6450
▁hiditse	-6451
▁homeiko	-6452
▁mangala	-6453
▁mimetea	-6454
▁rambaza	-6455
▁rebinjo	-6456
▁tompoko	-6457
▁tsitsoe	-6458
▁vosibey	-6459
antanagne	-6460
ilingilie	-6461
ilintotse	-6462
ilipolipo	-6463
iniribiry	-6464
isitirike	-6465
itsifagne	-6466
izandroaz	-6467
magnalegn	-6468
mangatake	-6469
mipetrake	-6470
mirovetse	-6471
mitifitse	-6472
mivilogne	-6473
nagnirake	-6474
olitolike	-6475
ondrogney	-6476
ondroigne	-6477
ragnenaho	-6478
rangaholi	-6479
simbazaha	-6480
somontsoy	-6481
trakoegne	-6482
▁afapotsy	-6483
▁afaragne	-6484
▁afeafeko	-6485
▁agnadalo	-6486
▁agnampea	-6487
▁agnaramb	-6488
▁ahavitae	-6489
▁ahetseke	-6490
▁ahosotse	-6491
▁alakaosy	-6492
▁alikaosy	-6493
▁alizaoza	-6494
▁alohotse	-6495
▁alolitse	-6496
▁amanjoke	-6497
▁amaodaty	-6498
▁ambarako	-6499
bla	-6500
▁id	-6501
anda	-6502
arit	-6503
ivoe	-6504
kose	-6505
ovav	-6506
▁arc	-6507
alasa	-6508
alasy	-6509
enala	-6510
fondr	-6511
sambo	-6512
▁ahaz	-6513
▁fete	-6514
▁hasi	-6515
▁hete	-6516
▁lala	-6517
▁mite	-6518
▁mitr	-6519
▁mpir	-6520
anagna	-6521
atsiha	-6522
beindr	-6523
faitse	-6524
iagney	-6525
omboro	-6526
ondrae	-6527
tsigne	-6528
▁ataoo	-6529
▁etoke	-6530
▁korài	-6531
▁molia	-6532
▁namea	-6533
▁nanoh	-6534
▁zanak	-6535
ampetse	-6536
olofate	-6537
▁ambaro	-6538
▁aretre	-6539
▁ataoen	-6540
▁fohino	-6541
▁hitaha	-6542
▁ipoaha	-6543
▁liagne	-6544
▁manare	-6545
▁mpiray	-6546
▁nahats	-6547
▁nampis	-6548
▁nandoa	-6549
▁numéro	-6550
▁ratane	-6551
▁saonts	-6552
niboseke	-6553
tseenala	-6554
▁halatse	-6555
▁hatsiha	-6556
▁hihegne	-6557
▁rafozao	-6558
▁rikiahe	-6559
beindrano	-6560
▁ambiasao	-6561
▁amizaoty	-6562
▁amoriako	-6563
▁ampahone	-6564
▁ampanihe	-6565
▁ampikazo	-6566
▁anatrosa	-6567
▁andohahe	-6568
▁andragne	-6569
▁andraony	-6570
▁andrenee	-6571
▁andronov	-6572
▁anisanny	-6573
▁anovegne	-6574
▁antanagn	-6575
▁antignan	-6576
▁arandran	-6577
▁arazegne	-6578
▁asasorae	-6579
▁atoynaho	-6580
▁atsirike	-6581
▁avohotse	-6582
▁benjamin	-6583
▁botsitse	-6584
▁ceinture	-6585
▁decembre	-6586
▁district	-6587
▁egnenaho	-6588
▁eyminday	-6589
▁famarita	-6590
▁fanagnae	-6591
▁fandrike	-6592
▁fantatse	-6593
▁fatikako	-6594
▁fatratra	-6595
▁fatsatse	-6596
▁fengokeo	-6597
▁fifeheza	-6598
▁fihagneo	-6599
apo	-6600
mik	-6601
▁29	-6602
aaaa	-6603
alii	-6604
anif	-6605
elap	-6606
joho	-6607
mand	-6608
mane	-6609
mare	-6610
nato	-6611
omea	-6612
omis	-6613
soja	-6614
aliko	-6615
ampis	-6616
entre	-6617
inaie	-6618
ireke	-6619
oroka	-6620
osina	-6621
▁1200	-6622
▁alok	-6623
▁fiat	-6624
▁mida	-6625
▁milo	-6626
▁zero	-6627
ihoeke	-6628
ikasio	-6629
itragn	-6630
▁amoro	-6631
▁antik	-6632
▁igney	-6633
▁ligne	-6634
▁mband	-6635
▁nalae	-6636
▁tanee	-6637
▁tinae	-6638
▁tinen	-6639
itsagne	-6640
orognae	-6641
▁alyaly	-6642
▁ambava	-6643
▁aniany	-6644
▁centre	-6645
▁fatike	-6646
▁indime	-6647
▁karama	-6648
▁midada	-6649
▁nanoro	-6650
▁saliko	-6651
▁tinaha	-6652
▁tinant	-6653
nimasake	-6654
▁andreke	-6655
▁hizotso	-6656
▁magnavy	-6657
▁miaigne	-6658
▁nahazoe	-6659
▁nainaie	-6660
▁nampoly	-6661
▁rekegne	-6662
▁sinimba	-6663
▁tomotse	-6664
▁anaregne	-6665
▁filahiae	-6666
▁firehake	-6667
▁firenena	-6668
▁fiteraty	-6669
▁fiveloma	-6670
▁fivondro	-6671
▁fohitika	-6672
▁fokotane	-6673
▁fotifoty	-6674
▁gadognae	-6675
▁hadelira	-6676
▁hagnetea	-6677
▁hahamafe	-6678
▁halefako	-6679
▁hamalike	-6680
▁hamondre	-6681
▁hamoreke	-6682
▁hampipit	-6683
▁hanapake	-6684
▁handrese	-6685
▁hasiagne	-6686
▁hazavako	-6687
▁hazomena	-6688
▁henjagne	-6689
▁hifindra	-6690
▁hileteke	-6691
▁hioeihae	-6692
▁hipoliae	-6693
▁hisaegne	-6694
▁hitondra	-6695
▁hitonoae	-6696
▁hivazoho	-6697
▁hoanareo	-6698
▁hoetiasa	-6699
25	-6700
baba	-6701
kibo	-6702
ngne	-6703
▁azy	-6704
▁bae	-6705
▁bef	-6706
▁ila	-6707
▁pih	-6708
▁rat	-6709
▁tro	-6710
aveko	-6711
elaka	-6712
gnaby	-6713
ihazo	-6714
ilany	-6715
▁bona	-6716
▁dama	-6717
▁hits	-6718
▁tsaf	-6719
▁tsor	-6720
afolie	-6721
alakee	-6722
asambe	-6723
ezagne	-6724
ihigne	-6725
irakeo	-6726
ompoko	-6727
sipike	-6728
▁ankan	-6729
▁faela	-6730
▁mahia	-6731
▁omeae	-6732
▁tsoke	-6733
androee	-6734
aveagne	-6735
avoagne	-6736
▁fahare	-6737
▁fiavia	-6738
▁fotake	-6739
▁hanamp	-6740
▁hatake	-6741
▁kopoke	-6742
▁magnak	-6743
▁maimbo	-6744
▁mihaly	-6745
▁nagnav	-6746
▁nahaja	-6747
▁nikamo	-6748
▁tinino	-6749
▁zarako	-6750
▁aforika	-6751
▁amaetsy	-6752
▁antetse	-6753
▁lahatao	-6754
▁mandrae	-6755
▁sampona	-6756
▁sokitse	-6757
▁vinonoe	-6758
angiegnei	-6759
▁alevegne	-6760
▁anagnaty	-6761
▁andriare	-6762
▁germaine	-6763
▁hobohobo	-6764
▁hoetirae	-6765
▁hohaneko	-6766
▁iliragne	-6767
▁inoandro	-6768
▁ionamale	-6769
▁irakemba	-6770
▁isikinae	-6771
▁itoyraha	-6772
▁kapitale	-6773
▁kapitaly	-6774
▁karokaro	-6775
▁koanilay	-6776
▁kolikoly	-6777
▁lafisoae	-6778
▁lahinaly	-6779
▁latimera	-6780
▁lendegne	-6781
▁lilindro	-6782
▁lohaheve	-6783
▁lohapaia	-6784
▁loloyhav	-6785
▁mafaitse	-6786
▁magnabey	-6787
▁magnasoa	-6788
▁magnente	-6789
▁magninof	-6790
▁magnitse	-6791
▁mahafaly	-6792
▁mahafapo	-6793
▁mahalava	-6794
▁mahameno	-6795
▁mahantra	-6796
▁maharaty	-6797
▁mahatong	-6798
▁mahavany	-6799
hy	-6800
nee	-6801
igné	-6802
osoa	-6803
vava	-6804
▁147	-6805
▁res	-6806
▁sih	-6807
asolo	-6808
onose	-6809
▁boak	-6810
▁haja	-6811
▁soly	-6812
▁taia	-6813
ahendr	-6814
mbagne	-6815
ositse	-6816
sikina	-6817
▁aboae	-6818
▁fahas	-6819
▁fahia	-6820
▁hoasa	-6821
▁lanja	-6822
▁loake	-6823
▁mariv	-6824
▁vazav	-6825
aritake	-6826
saontsy	-6827
▁ahitse	-6828
▁aolyka	-6829
▁fagnor	-6830
▁ignefa	-6831
▁mijale	-6832
▁mivory	-6833
▁mpanja	-6834
▁nengae	-6835
▁nifaly	-6836
▁rerake	-6837
▁tearan	-6838
drazagne	-6839
▁ampelai	-6840
▁ampiasa	-6841
▁andriha	-6842
▁bevente	-6843
▁hafatse	-6844
▁longoko	-6845
▁mialats	-6846
▁namatse	-6847
▁nititse	-6848
▁tanendr	-6849
▁teieino	-6850
▁tetsila	-6851
▁tsinara	-6852
▁vazagne	-6853
agnaretse	-6854
ambaragne	-6855
apolotake	-6856
fokopatse	-6857
zagnahare	-6858
▁alarobia	-6859
▁avaolasa	-6860
▁azéorihe	-6861
▁isahegne	-6862
▁mahavazo	-6863
▁maitegne	-6864
▁maivagne	-6865
▁mamirano	-6866
▁manarene	-6867
▁mandiera	-6868
▁mandrese	-6869
▁mangaolo	-6870
▁maronagn	-6871
▁matarike	-6872
▁matenagn	-6873
▁mavoigne	-6874
▁mavokely	-6875
▁menamena	-6876
▁miakatre	-6877
▁miakatse	-6878
▁miakigne	-6879
▁miaregne	-6880
▁midoboke	-6881
▁mifampip	-6882
▁mifandia	-6883
▁mifatoke	-6884
▁miharava	-6885
▁mihinana	-6886
▁mileteke	-6887
▁miombaze	-6888
▁misafiry	-6889
▁misaotra	-6890
▁misokake	-6891
▁mitendre	-6892
▁mitsegne	-6893
▁mitsitsy	-6894
▁mpambole	-6895
▁mpavande	-6896
▁mpitsabo	-6897
▁mpizaiae	-6898
▁naefetse	-6899
ibo	-6900
ipy	-6901
ipoe	-6902
otee	-6903
▁sof	-6904
anina	-6905
▁azey	-6906
▁haie	-6907
▁teso	-6908
▁velo	-6909
antoke	-6910
ategna	-6911
imboae	-6912
▁andan	-6913
▁habey	-6914
▁hamoe	-6915
▁igneo	-6916
▁nalay	-6917
▁nampi	-6918
▁nanda	-6919
▁nifee	-6920
▁nitso	-6921
▁tindr	-6922
▁zipoe	-6923
andrina	-6924
endreke	-6925
ondrene	-6926
tontolo	-6927
▁avelae	-6928
▁fanogn	-6929
▁hatoro	-6930
▁hoekeo	-6931
▁marivo	-6932
▁tarike	-6933
▁tsinoa	-6934
ambasare	-6935
▁fizarae	-6936
▁mahafoh	-6937
▁manonjo	-6938
▁miditse	-6939
▁vonjake	-6940
ikarakara	-6941
▁hamonoae	-6942
▁mahaytsy	-6943
▁mitregne	-6944
▁nagnafab	-6945
▁nagnomey	-6946
▁nahafake	-6947
▁nahafate	-6948
▁nahasaky	-6949
▁nahavita	-6950
▁naleveko	-6951
▁namondro	-6952
▁nanahake	-6953
▁nanokake	-6954
▁napetake	-6955
▁napetrae	-6956
▁natahora	-6957
▁naterako	-6958
▁natraoke	-6959
▁navolili	-6960
▁nentegna	-6961
▁niafampo	-6962
▁niandoha	-6963
▁niavotse	-6964
▁nibaibay	-6965
▁nibeibey	-6966
▁nidisake	-6967
▁nifampit	-6968
▁nihamafe	-6969
▁nikapaka	-6970
▁nikaroke	-6971
▁nilagnoa	-6972
▁nimoagne	-6973
▁ninonoae	-6974
▁nitalili	-6975
▁nitalily	-6976
▁nitondra	-6977
▁nitsinjo	-6978
▁nivalasy	-6979
▁nivazoho	-6980
▁novambra	-6981
▁ntaoloty	-6982
▁ofisialy	-6983
▁ohadraha	-6984
▁ombiasay	-6985
▁ondatibe	-6986
▁peapeake	-6987
▁porozoke	-6988
▁ramevola	-6989
▁ravembia	-6990
▁razagney	-6991
▁rehafeko	-6992
▁rekenaho	-6993
▁renerano	-6994
▁rerelava	-6995
▁roazagne	-6996
▁rohivola	-6997
▁sahisahy	-6998
▁sambatse	-6999
▁sampagne	-7000
▁saontsie	-7001
▁sendreke	-7002
▁sinihara	-7003
▁sisitane	-7004
▁sohoagne	-7005
▁tagnagne	-7006
▁tagnatee	-7007
▁tahinamb	-7008
▁tamagney	-7009
▁tandremo	-7010
▁tantarae	-7011
▁tekinika	-7012
▁tezambey	-7013
▁tinafike	-7014
▁tinenoko	-7015
▁tinindri	-7016
▁tohatset	-7017
▁tolognee	-7018
▁tragnonj	-7019
▁trahagne	-7020
▁tsaragne	-7021
▁tsieteko	-7022
▁tsimahay	-7023
▁tsiririo	-7024
▁vahoakeo	-7025
▁vahoakoy	-7026
▁vakiteny	-7027
▁valifate	-7028
▁valverde	-7029
▁vasiagne	-7030
▁vazahayf	-7031
▁vazohoko	-7032
▁verinzoe	-7033
▁vilogney	-7034
▁voaoitse	-7035
▁voavohoo	-7036
▁vohitsey	-7037
▁vokabole	-7038
▁vondrake	-7039
▁voravyao	-7040
▁vovogney	-7041
▁vovombey	-7042
▁zaoletao	-7043
▁zokenana	-7044
ahazomanga	-7045
akeambolap	-7046
akeykolera	-7047
akizayegne	-7048
alonaketsy	-7049
ambaliagne	-7050
andriamaro	-7051
andriambey	-7052
andriankir	-7053
androharoh	-7054
anjahalehe	-7055
ankilekira	-7056
arivosambe	-7057
avalatetsi	-7058
avaozetika	-7059
boroboagne	-7060
etaniboake	-7061
godognagne	-7062
igneyandao	-7063
ikorotagne	-7064
ilindroaza	-7065
itetimanga	-7066
itsiterake	-7067
itsorogney	-7068
kazomangae	-7069
ontognogne	-7070
otsilakazo	-7071
ragnotaneo	-7072
sayvohitse	-7073
soatantara	-7074
vetsevetse	-7075
▁agnombety	-7076
▁agnotanea	-7077
▁alahamaly	-7078
▁alahasady	-7079
▁amananako	-7080
▁ambalahae	-7081
▁ambalikao	-7082
▁ambendrai	-7083
▁ambinegne	-7084
▁amoidiree	-7085
▁androaeeo	-7086
▁androndro	-7087
▁anoagnaze	-7088
▁antsevavy	-7089
▁atagnagne	-7090
▁atondagne	-7091
▁aynjeteie	-7092
▁azondrano	-7093
▁carambole	-7094
▁dabanjaha	-7095
▁dageagnee	-7096
▁embenagne	-7097
▁embokaoly	-7098
▁enelahiko	-7099
▁etoandaty	-7100
▁fagnafoli	-7101
▁fagnavelo	-7102
▁fahadisoa	-7103
▁fahaveloe	-7104
▁famoforae	-7105
▁fanovogna	-7106
▁fisitogne	-7107
▁fitsipike	-7108
▁foliagney	-7109
▁fotoagney	-7110
▁fotoraefe	-7111
▁hafahatae	-7112
▁hagnavake	-7113
▁haharetse	-7114
▁hamaetane	-7115
▁hamakiako	-7116
▁hampijale	-7117
▁hanandroe	-7118
▁hananezao	-7119
▁hangataha	-7120
▁hanovagne	-7121
▁hasafotse	-7122
▁hasoatane	-7123
▁hatomboke	-7124
▁hatrakami	-7125
▁hazohatae	-7126
▁hazovigne	-7127
▁henanezao	-7128
▁hevetsazo	-7129
▁hifaragne	-7130
▁hipoliako	-7131
▁hitantara	-7132
▁hoaeiareo	-7133
▁hoenjanae	-7134
▁hosoragne	-7135
▁hovohagne	-7136
▁ihaliagne	-7137
▁intiagnao	-7138
▁isampokoe	-7139
▁isampokoy	-7140
▁isantsena	-7141
▁isaoragne	-7142
▁jentilisa	-7143
▁kabijagne	-7144
▁kahenient	-7145
▁kanefagne	-7146
▁koahenisy	-7147
▁kolontsai	-7148
▁lavabeyie	-7149
▁lolohavee	-7150
▁magnarato	-7151
▁mahakamay	-7152
▁mahatagne	-7153
▁mahazatse	-7154
▁mamboatse	-7155
▁mampahery	-7156
▁mampihehe	-7157
▁manandrae	-7158
▁manavogne	-7159
▁mandrambe	-7160
▁mandritse	-7161
▁manotagna	-7162
▁mapiandro	-7163
▁maroaloke	-7164
▁masoandro	-7165
▁matetekey	-7166
▁mbandrano	-7167
▁mbetoagne	-7168
▁mifahetse	-7169
▁mifandona	-7170
▁mifandrae	-7171
▁mitantara	-7172
▁mitavanja	-7173
▁morondran	-7174
▁mpaminany	-7175
▁mpanafike	-7176
▁mpitondra	-7177
▁nagnakany	-7178
▁nagnavake	-7179
▁nahatagne	-7180
▁nahonigne	-7181
▁nametsake	-7182
▁namitagne	-7183
▁nampitoka	-7184
▁nanambali	-7185
▁nanavatse	-7186
▁nandietse	-7187
▁nanoratse	-7188
▁nasafotse	-7189
▁nateregne	-7190
▁natomboke	-7191
▁niatondro	-7192
▁niezahako	-7193
▁nifindraf	-7194
▁nifotrake	-7195
▁nihamahay	-7196
▁nihasigne	-7197
▁nikamagne	-7198
▁nikamatsy	-7199
▁nimodogne	-7200
▁nimpifaly	-7201
▁nirovabey	-7202
▁nisafotse	-7203
▁nitifatse	-7204
▁nitondran	-7205
▁nitsotsoe	-7206
▁nivelogne	-7207
▁ntaolombe	-7208
▁ovoasareo	-7209
▁pisarotse	-7210
▁porozaiae	-7211
▁renelahie	-7212
▁roangaheo	-7213
▁roazatika	-7214
▁safodrano	-7215
▁safokenay	-7216
▁sakalavao	-7217
▁salovagne	-7218
▁sevohitse	-7219
▁simbaoavy	-7220
▁sinokakey	-7221
▁sitrapoko	-7222
▁somonjara	-7223
▁somontsoy	-7224
▁tafiditre	-7225
▁tagnemisy	-7226
▁tagnenisy	-7227
▁tahakizay	-7228
▁talilieko	-7229
▁tambiogne	-7230
▁tampereko	-7231
▁tanambeye	-7232
▁tandregne	-7233
▁tanndreke	-7234
▁tantarako	-7235
▁tantrambo	-7236
▁tapahegne	-7237
▁teambiloe	-7238
▁teieamono	-7239
▁telonjato	-7240
▁tifiregne	-7241
▁tinokagne	-7242
▁tognotogn	-7243
▁tsaramaso	-7244
▁tsimaitoy	-7245
▁tsitokave	-7246
▁vahoragne	-7247
▁valilahie	-7248
▁valohatoe	-7249
▁vangovang	-7250
▁vetenofoe	-7251
▁videogneo	-7252
▁vinelogne	-7253
▁voalohany	-7254
▁voamaigne	-7255
▁volohazoy	-7256
▁zoendraha	-7257
agnaregneao	-7258
agnombenaho	-7259
amahavazoho	-7260
aramanataly	-7261
avinonoireo	-7262
ditionnelle	-7263
fondravalat	-7264
ignanagneie	-7265
kilometatse	-7266
malazataloh	-7267
manahakizay	-7268
ovoloparasy	-7269
razagnefate	-7270
samamilogne	-7271
tapakevetse	-7272
vendranonja	-7273
zeagnaretse	-7274
▁0349867819	-7275
▁adihevetse	-7276
▁agnaragney	-7277
▁agnarapoko	-7278
▁agnehoagne	-7279
▁ahatendreh	-7280
▁ahavelomae	-7281
▁ahitampagn	-7282
▁alytafikey	-7283
▁ambahiniko	-7284
▁ambasarena	-7285
▁amboalohae	-7286
▁ampelaraty	-7287
▁andohahela	-7288
▁anjarezere	-7289
▁ankamaroae	-7290
▁ankazomang	-7291
▁ankilekira	-7292
▁anokafagne	-7293
▁anovekokay	-7294
▁aolignolie	-7295
▁beharareke	-7296
▁biniribiry	-7297
▁boriboryne	-7298
▁eretserete	-7299
▁fagnaterao	-7300
▁fahafinare	-7301
▁fahavazaha	-7302
▁fandesegne	-7303
▁fanjakaeyn	-7304
▁farananake	-7305
▁fatikakoho	-7306
▁fiambesara	-7307
▁fihaminako	-7308
▁fisaontsia	-7309
▁fitiavambe	-7310
▁fitrahagne	-7311
▁hafaleagne	-7312
▁hagnoregne	-7313
▁hagnozogne	-7314
▁hahafohina	-7315
▁hahatsiaro	-7316
▁halaembaly	-7317
▁hamafelaza	-7318
▁handamigne	-7319
▁hazontagne	-7320
▁heurtebize	-7321
▁hijerajera	-7322
▁hipetrahao	-7323
▁hisarabaly	-7324
▁hivarignae	-7325
▁hoeitoagne	-7326
▁hoerakemba	-7327
▁hofompogne	-7328
▁indraikefa	-7329
▁irehafagne	-7330
▁kabokaboke	-7331
▁katilaatao	-7332
▁kinabokabo	-7333
▁lahilahyko	-7334
▁laledaleke	-7335
▁lambosigne	-7336
▁lavabitike	-7337
▁leangosako	-7338
▁letaembozo	-7339
▁lombolombo	-7340
▁magnaligno	-7341
▁magnambone	-7342
▁magnandevo	-7343
▁magnaregne	-7344
▁magnonigne	-7345
▁mahaonigne	-7346
▁mahatsiaro	-7347
▁maliginash	-7348
▁mampitrake	-7349
▁mampitrosa	-7350
▁manahakaze	-7351
▁manampakeh	-7352
▁manandrano	-7353
▁manantsifa	-7354
▁mandefetse	-7355
▁manoindahy	-7356
▁mialatsiny	-7357
▁miatomboke	-7358
▁mibananake	-7359
▁midadasike	-7360
▁mifagnompa	-7361
▁mikarakara	-7362
▁mikororoke	-7363
▁milokoloko	-7364
▁mirehetseo	-7365
▁mombamomba	-7366
▁mpagnarato	-7367
▁mpikalagne	-7368
▁mpinamagne	-7369
▁mpitologne	-7370
▁mpivavakeo	-7371
▁nagnafatse	-7372
▁nagnoregne	-7373
▁nahandroee	-7374
▁nahatsatse	-7375
▁namboareko	-7376
▁namorognae	-7377
▁nampijalea	-7378
▁nampitahae	-7379
▁nandesegne	-7380
▁nanenoagne	-7381
▁nangalatse	-7382
▁natakaloko	-7383
▁niboahagne	-7384
▁nifagnomba	-7385
▁nifankatea	-7386
▁nihirifako	-7387
▁nikopepake	-7388
▁nirazagnee	-7389
▁nitandrema	-7390
▁niterakazo	-7391
▁nitongogne	-7392
▁nitorifike	-7393
▁nivilasyty	-7394
▁nizarazara	-7395
▁njagnahare	-7396
▁rahalahiko	-7397
▁rahavaveko	-7398
▁ramevolafe	-7399
▁ravoahangy	-7400
▁réhiiirano	-7401
▁samboregne	-7402
▁sinagnitse	-7403
▁siognagney	-7404
▁tabefaitse	-7405
▁taliliegne	-7406
▁tamontogne	-7407
▁tanagneofa	-7408
▁taranakame	-7409
▁tetaolagne	-7410
▁tetsirandr	-7411
▁tevahavola	-7412
▁tevazoagne	-7413
▁tinapabozo	-7414
▁tinenogney	-7415
▁vagnombaly	-7416
▁vahaolagne	-7417
▁vandevande	-7418
▁vantotsose	-7419
▁vilondraey	-7420
▁voasoratse	-7421
▁volontsira	-7422
▁zayhatrake	-7423
ambolagnegne	-7424
ampiraitampo	-7425
andraefanagn	-7426
andriagnegne	-7427
aniambesatse	-7428
antignanagne	-7429
dododohiiiii	-7430
fiangonagneo	-7431
iandrahanaho	-7432
ombandrazana	-7433
roaragneorek	-7434
tragnondolol	-7435
▁agnalapatse	-7436
▁agnasombola	-7437
▁agnelagnela	-7438
▁agnombelahy	-7439
▁alaendraeko	-7440
▁ambalikagne	-7441
▁ambanembane	-7442
▁amizaoisake	-7443
▁ampitahagne	-7444
▁andefesagne	-7445
▁andriamieba	-7446
▁angalaoareo	-7447
▁antsarotroe	-7448
▁arabakiteny	-7449
▁borokamahia	-7450
▁entendrenee	-7451
▁fahafahampo	-7452
▁fahafohigna	-7453
▁fahalemegne	-7454
▁faharavagne	-7455
▁faharetagne	-7456
▁famboleagne	-7457
▁fanapahagne	-7458
▁fanokafagne	-7459
▁fikanjiagne	-7460
▁fisiandrano	-7461
▁fisikinagne	-7462
▁fiterahagne	-7463
▁fivondrogna	-7464
▁folevelogne	-7465
▁fondralambo	-7466
▁habeindrano	-7467
▁hagnaviaeie	-7468
▁hambiasagne	-7469
▁hampianatse	-7470
▁hanahiragne	-7471
▁hanalezagne	-7472
▁hanamboatse	-7473
▁hanjakazaka	-7474
▁havoriagney	-7475
▁heritsaigne	-7476
▁hifanambaly	-7477
▁hilafikamao	-7478
▁hisaontsiae	-7479
▁hohaneesita	-7480
▁horehafegne	-7481
▁ifandovagne	-7482
▁inoandroaza	-7483
▁iotinantara	-7484
▁isorognagne	-7485
▁ivigneragne	-7486
▁izayazafady	-7487
▁kilatandroy	-7488
▁kinarokaroe	-7489
▁kolotsaigne	-7490
▁lahialegney	-7491
▁lambandoloy	-7492
▁lavatomboke	-7493
▁lolorazagne	-7494
▁lomagnorano	-7495
▁lovatsofina	-7496
▁mahatongahy	-7497
▁malaindrozo	-7498
▁mamaragnaze	-7499
▁mampalahelo	-7500
▁mampitroara	-7501
▁manahiragne	-7502
▁mandehandeh	-7503
▁mandravogne	-7504
▁mangararake	-7505
▁maroseragna	-7506
▁mbambalahae	-7507
▁mbandonakeo	-7508
▁menarandray	-7509
▁miagnambone	-7510
▁miagnantimo	-7511
▁mifampitera	-7512
▁mifanambali	-7513
▁mikorotagne	-7514
▁mitsangagne	-7515
▁mpagnaleale	-7516
▁mpisorombey	-7517
▁mpitsinjoke	-7518
▁nagnavakaze	-7519
▁nahavazohoa	-7520
▁nahavelogne	-7521
▁nahosotraze	-7522
▁nampianaree	-7523
▁napipalitse	-7524
▁nasafotraze	-7525
▁natahoragne	-7526
▁natrangagne	-7527
▁nifaliengne	-7528
▁nihirifagne	-7529
▁nilatsahako	-7530
▁nimateintia	-7531
▁nindramegne	-7532
▁niondrogney	-7533
▁nitolognaze	-7534
▁pibilikasio	-7535
▁ranomaintya	-7536
▁ranomasigne	-7537
▁renevavegne	-7538
▁roignendaty	-7539
▁sampagnagne	-7540
▁saveregnako	-7541
▁simbasimbao	-7542
▁tagnanjomba	-7543
▁tagnenahery	-7544
▁tantarampit	-7545
▁taparehetse	-7546
▁tokatragnoe	-7547
▁tombontsiry	-7548
▁tompondongo	-7549
▁tovondraoke	-7550
▁tragnomboro	-7551
▁tsakavilasy	-7552
▁tsikaoregne	-7553
▁tsimaitoamb	-7554
▁tsimananada	-7555
▁tsivasiagne	-7556
▁vahoakeyaia	-7557
▁vilondraike	-7558
▁voalohapaia	-7559
▁voanjokatra	-7560
▁voatanisako	-7561
▁zokekozaiko	-7562
alevamparitra	-7563
ambolomanambo	-7564
ampoinimerina	-7565
andrombaenaho	-7566
aratananarivo	-7567
elakobofitera	-7568
fanagnandroae	-7569
nagnotaneagne	-7570
ondroigneloha	-7571
▁adaloverseau	-7572
▁agnalahamaly	-7573
▁agnalahasade	-7574
▁amantagnagne	-7575
▁ambohitragne	-7576
▁ambondrogney	-7577
▁aminagnahare	-7578
▁amonoandraha	-7579
▁ampalieiareo	-7580
▁andalatanose	-7581
▁andalatonose	-7582
▁andindovonoe	-7583
▁andriagnegne	-7584
▁androanyizay	-7585
▁androytompoe	-7586
▁antananarivo	-7587
▁antragnotane	-7588
▁atelegnefeie	-7589
▁atragnotaneo	-7590
▁dodododododo	-7591
▁egnenimasake	-7592
▁fagnampeagne	-7593
▁fagnitsiagne	-7594
▁fanagnandroe	-7595
▁fandeferagne	-7596
▁fiotsognagne	-7597
▁fondriambita	-7598
▁fotoandraike	-7599
▁hagnakabalyh	-7600
▁hampanafihee	-7601
▁hampipitotse	-7602
▁hanenagnombe	-7603
▁hifagnolagne	-7604
▁hitampihaino	-7605
▁hitandremako	-7606
▁holyvonoegne	-7607
▁indraikelasa	-7608
▁isaontsiagne	-7609
▁jabajabaezao	-7610
▁jabajabaomeo	-7611
▁kinabokaboke	-7612
▁kohinagnombe	-7613
▁lambafirakey	-7614
▁landyfirakeo	-7615
▁magnororinga	-7616
▁mahadageagne	-7617
▁mahafantatse	-7618
▁mampindragne	-7619
▁manakareagne	-7620
▁manambitagne	-7621
▁mankasitraka	-7622
▁mavandevande	-7623
▁miatrejoloke	-7624
▁mifakavazoho	-7625
▁mikorakorake	-7626
▁mitolitolike	-7627
▁mitsikarioke	-7628
▁nagnambarako	-7629
▁nagnonteneae	-7630
▁nahalatsangy	-7631
▁nahonignagne	-7632
▁nampadehanee	-7633
▁nanalabaraka	-7634
▁niambahiniko	-7635
▁nifanandrife	-7636
▁nihagasiegne	-7637
▁nikapakapake	-7638
▁otaparehetse	-7639
▁paliaveeomeo	-7640
▁rangahereyfa	-7641
▁reenivarigna	-7642
▁rehavagnaeie	-7643
▁remahazonaho	-7644
▁roandriambey	-7645
▁sarokegnatse	-7646
▁savilintotse	-7647
▁soratranjake	-7648
▁tagnandromba	-7649
▁tanagneynaho	-7650
▁taneynandese	-7651
▁tehagnitatse	-7652
▁tekinikafeie	-7653
▁vangovangoko	-7654
▁voalohananao	-7655
amirohakeiareo	-7656
▁agneniheregne	-7657
▁agnondryakoho	-7658
▁ahandrefagnao	-7659
▁amaemirovetse	-7660
▁ampagnoiregne	-7661
▁ampelasoazaza	-7662
▁androytalakee	-7663
▁ankilimasigne	-7664
▁arapitiavagne	-7665
▁ateemanomboke	-7666
▁eynagnorikaze	-7667
▁fagnoharalasa	-7668
▁fahatapahagne	-7669
▁fanambaliagne	-7670
▁fihainoenigoa	-7671
▁fikambanagneo	-7672
▁hagnaliovagne	-7673
▁halatsalatsey	-7674
▁hampihegnagne	-7675
▁hampiheregnae	-7676
▁hihalaviragne	-7677
▁ikamantikagne	-7678
▁lahialegneino	-7679
▁lambafirakety	-7680
▁lilindrazagne	-7681
▁loloyhavilasy	-7682
▁magnasitragne	-7683
▁mahafinaritra	-7684
▁mahavelognafo	-7685
▁managnagnombe	-7686
▁manahiragnaze	-7687
▁manapanihyman	-7688
▁mandrondrogne	-7689
▁marivohafarae	-7690
▁metemanomboke	-7691
▁mifampitendio	-7692
▁mitsombomboke	-7693
▁molymiheregne	-7694
▁nagnandesagne	-7695
▁nahaizandroaz	-7696
▁nahatafiditse	-7697
▁nampangalagne	-7698
▁nanapakevetse	-7699
▁nataondroazan	-7700
▁niboribodagne	-7701
▁nifampigaogne	-7702
▁nifampitalily	-7703
▁nifandroharoh	-7704
▁nihavaozetika	-7705
▁nitsoaenitsoa	-7706
▁ranomasiranoi	-7707
▁ravembalahazo	-7708
▁rekeitoagnaby	-7709
▁reneesoramena	-7710
▁renevegnerene	-7711
▁roangaheyhaaa	-7712
▁sorokazomanga	-7713
▁tahinambazaha	-7714
▁tamparehetseo	-7715
▁tamparehetsey	-7716
▁tanendrazagne	-7717
▁tatonisaontsy	-7718
▁temahatomotse	-7719
▁tognombitagne	-7720
▁tragnohambole	-7721
▁tsikilipolipo	-7722
▁tsikimonimoni	-7723
▁vaherangaholi	-7724
▁zagnaharenaho	-7725
▁zaomarandrano	-7726
▁établissement	-7727
magnalegnalegne	-7728
▁afondrasilokeo	-7729
▁amandrahalahie	-7730
▁ambahinindrene	-7731
▁ambinekareagne	-7732
▁ampahafohineko	-7733
▁andrinagnahare	-7734
▁androandriagne	-7735
▁antananagnombe	-7736
▁arakolontsaina	-7737
▁azeroandriagne	-7738
▁beharaambasare	-7739
▁fagnamboaragne	-7740
▁fanognonagnaze	-7741
▁fasagnenanjaka	-7742
▁fianakaviagney	-7743
▁fisianagnahare	-7744
▁hagneferagnaze	-7745
▁handetaniboake	-7746
▁hataligneregne	-7747
▁hatrakamantika	-7748
▁hitolomandraha	-7749
▁inoandroazagne	-7750
▁kindraindraike	-7751
▁lavenokantetse	-7752
▁lovatsofignaby	-7753
▁mangalonaketsy	-7754
▁maronagnomagne	-7755
▁matenagnotanea	-7756
▁mifanimbazimba	-7757
▁nagnavelombami	-7758
▁nagnonteneagne	-7759
▁neizaovoalohae	-7760
▁nihagasiaetika	-7761
▁nitondraninday	-7762
▁nivilasymahery	-7763
▁sandramegnatse	-7764
▁saontsimbazaha	-7765
▁sokakesinokake	-7766
▁tarignandrokeo	-7767
▁tometragnenaho	-7768
▁traditionnelle	-7769
▁trakotrakoegne	-7770
▁tsingilingilie	-7771
▁tsorakeykolera	-7772
▁voloemangalake	-7773
asilokemamilogne	-7774
avotagnetagnogne	-7775
rafihotonihirifa	-7776
▁ahyhitandremako	-7777
▁ambovombetinohy	-7778
▁andriaretsivere	-7779
▁anjarezerentane	-7780
▁azeranonangatse	-7781
▁famosoragneizay	-7782
▁fanagnandroaeke	-7783
▁fitroaragneorek	-7784
▁hampahafohineko	-7785
▁hampigodognagne	-7786
▁hitolognandraha	-7787
▁hoarekeniboseke	-7788
▁manaoigneyizaho	-7789
▁mandrakizayegne	-7790
▁maroforohafarae	-7791
▁milevendranonja	-7792
▁mpagnarivoniavy	-7793
▁mpitakazomangae	-7794
▁nagnafabarakahy	-7795
▁nampisangiegnei	-7796
▁nasehonagnahare	-7797
▁navolilindroaza	-7798
▁nianignanagneie	-7799
▁nifindrafindrae	-7800
▁paliaemangatake	-7801
▁rakembayhafarae	-7802
▁remanofotrandro	-7803
▁roaandriagnegne	-7804
▁sampanandalagne	-7805
▁tandrekeialagne	-7806
▁tognotognonegne	-7807
▁tsaboegnealagne	-7808
▁tsodranomangate	-7809
▁vintagnasombola	-7810
▁volambolagnegne	-7811
▁vorognemitsitra	-7812
151	-7813
470	-7814
751	-7815
psr	-7816
uté	-7817
1199	-7818
1961	-7819
7470	-7820
8151	-7821
8751	-7822
9199	-7823
cthe	-7824
miad	-7825
myst	-7826
oper	-7827
utés	-7828
uvel	-7829
yfiv	-7830
▁09_	-7831
▁ché	-7832
▁sps	-7833
00200	-7834
00201	-7835
00430	-7836
04120	-7837
11993	-7838
91992	-7839
_1959	-7840
aehoh	-7841
akive	-7842
alogi	-7843
dihad	-7844
elape	-7845
fivav	-7846
iboly	-7847
indoa	-7848
ipezo	-7849
irizo	-7850
korot	-7851
maren	-7852
mideb	-7853
mikos	-7854
oymid	-7855
poaka	-7856
pokil	-7857
psrdo	-7858
ronti	-7859
sitry	-7860
vinbo	-7861
voron	-7862
▁0910	-7863
▁1974	-7864
▁2025	-7865
▁beti	-7866
▁chér	-7867
▁fcrt	-7868
▁john	-7869
▁jojo	-7870
▁laoe	-7871
▁offi	-7872
▁spsm	-7873
▁vezo	-7874
▁vohi	-7875
002013	-7876
971960	-7877
ahahit	-7878
anihee	-7879
arotee	-7880
ateoio	-7881
avakor	-7882
belamb	-7883
debave	-7884
didiko	-7885
elekey	-7886
eloelo	-7887
faehoh	-7888
fangat	-7889
folake	-7890
holava	-7891
homana	-7892
ilaoma	-7893
inasah	-7894
indoau	-7895
izivae	-7896
jojoho	-7897
kabodr	-7898
kavoka	-7899
ivye	-7900
ivyr	-7901
▁18_	-7902
▁31_	-7903
bango	-7904
itegn	-7905
namol	-7906
rivye	-7907
sinja	-7908
▁0600	-7909
▁0612	-7910
▁elae	-7911
▁jiro	-7912
alanny	-7913
amihot	-7914
isiako	-7915
itegna	-7916
kominy	-7917
lakato	-7918
lamits	-7919
mahavi	-7920
manaik	-7921
manasa	-7922
mandoh	-7923
manipy	-7924
marehy	-7925
mazoto	-7926
menage	-7927
miaina	-7928
mibata	-7929
miboha	-7930
mifona	-7931
mikapo	-7932
mikori	-7933
milanj	-7934
mpolal	-7935
nautés	-7936
nitoky	-7937
nouvel	-7938
oetsin	-7939
okomif	-7940
olilia	-7941
olofon	-7942
olokao	-7943
omipay	-7944
orohat	-7945
pilike	-7946
rakako	-7947
rotagn	-7948
sandry	-7949
sitate	-7950
sivava	-7951
soroka	-7952
tebete	-7953
tempol	-7954
tenagn	-7955
tsinay	-7956
tsinge	-7957
a	-7958
▁	-7959
e	-7960
o	-7961
n	-7962
i	-7963
t	-7964
r	-7965
y	-7966
m	-7967
h	-7968
g	-7969
s	-7970
k	-7971
l	-7972
f	-7973
v	-7974
d	-7975
z	-7976
b	-7977
p	-7978
j	-7979
é	-7980
1	-7981
2	-7982
0	-7983
c	-7984
u	-7985
_	-7986
3	-7987
9	-7988
4	-7989
5	-7990
6	-7991
7	-7992
8	-7993
à	-7994
